{"<pad>":0,"<s>":1,"</s>":2,"!":3,"\"":4,"#":5,"$":6,"%":7,"&":8,"'":9,"(":10,")":11,"*":12,"+":13,",":14,"-":15,".":16,"/":17,"0":18,"1":19,"2":20,"3":21,"4":22,"5":23,"6":24,"7":25,"8":26,"9":27,":":28,";":29,"=":30,"?":31,"@":32,"A":33,"B":34,"C":35,"D":36,"E":37,"F":38,"G":39,"H":40,"I":41,"J":42,"K":43,"L":44,"M":45,"N":46,"O":47,"P":48,"Q":49,"R":50,"S":51,"T":52,"U":53,"V":54,"W":55,"X":56,"Y":57,"Z":58,"[":59,"\\":60,"]":61,"^":62,"_":63,"`":64,"a":65,"b":66,"c":67,"d":68,"e":69,"f":70,"g":71,"h":72,"i":73,"j":74,"k":75,"l":76,"m":77,"n":78,"o":79,"p":80,"q":81,"r":82,"s":83,"t":84,"u":85,"v":86,"w":87,"x":88,"y":89,"z":90,"{":91,"|":92,"}":93,"~":94,"¡":95,"¢":96,"£":97,"¤":98,"¥":99,"¦":100,"§":101,"¨":102,"©":103,"ª":104,"«":105,"¬":106,"®":107,"¯":108,"°":109,"±":110,"²":111,"³":112,"´":113,"µ":114,"¶":115,"·":116,"¸":117,"¹":118,"º":119,"»":120,"¼":121,"½":122,"¾":123,"¿":124,"Â":125,"Ã":126,"Ä":127,"Å":128,"Æ":129,"Ç":130,"È":131,"É":132,"Ê":133,"Ë":134,"Ø":135,"Ù":136,"Û":137,"à":138,"á":139,"â":140,"ã":141,"ï":142,"ô":143,"ĉ":144,"Ċ":145,"Ġ":146,"ġ":147,"Ģ":148,"ģ":149,"Ĥ":150,"ĥ":151,"Ħ":152,"ħ":153,"Ĩ":154,"ĩ":155,"Ī":156,"ī":157,"Ĭ":158,"ĭ":159,"Į":160,"į":161,"İ":162,"ı":163,"Ĳ":164,"ĳ":165,"Ĵ":166,"ĵ":167,"Ķ":168,"ķ":169,"ĸ":170,"Ĺ":171,"ĺ":172,"Ļ":173,"ļ":174,"Ľ":175,"ľ":176,"Ŀ":177,"ŀ":178,"Ł":179,"ł":180,"Ń":181,"Ġt":182,"he":183,"Ġa":184,"in":185,"Ġw":186,"Ġ*":187,"Ġthe":188,"ou":189,"Ġs":190,"re":191,"Ġo":192,"ha":193,"er":194,"Ġb":195,"nd":196,"it":197,"Ġy":198,"is":199,"Ġc":200,"Ġm":201,"Ġd":202,"ĠĊ":203,"on":204,"Ġf":205,"ing":206,"ĠI":207,"OT":208,"MOT":209,"ll":210,"Ġyou":211,"Ġto":212,"an":213,"es":214,"or":215,"ed":216,"Ġp":217,"hat":218,"Ġg":219,"en":220,"Ġl":221,"CH":222,"Ġand":223,"Ġn":224,"CHI":225,"ar":226,"Ġof":227,"as":228,"Ġin":229,"at":230,"om":231,"Ġhe":232,"ow":233,"Ġh":234,"'s":235,"Ġit":236,"ot":237,"Ġha":238,"le":239,"ve":240,"Ġthat":241,"ay":242,"Ġth":243,"et":244,"Ġon":245,"ic":246,"ĠT":247,"us":248,"gh":249,"id":250,"Ġbe":251,"Ġis":252,"ĠA":253,"Ġwe":254,"ld":255,"Ġe":256,"ut":257,"al":258,"oo":259,"ĠS":260,"Ġwas":261,"ĠM":262,"im":263,"ke":264,"'t":265,"ac":266,"ad":267,"Ġdo":268,"Ġre":269,"ver":270,"Ġu":271,"..":272,"Ġ[":273,"Ġfor":274,"ght":275,"Ġr":276,"ĠB":277,"ir":278,"ĠW":279,"ly":280,"ion":281,"Ġ=":282,"se":283,"ent":284,"am":285,"Ġst":286,"ĠH":287,"ĠC":288,"out":289,"Ġk":290,"Ġ\"":291,"st":292,"ith":293,"Ġme":294,"ight":295,"Ġan":296,"ea":297,"her":298,"Ġwith":299,"Ġwhat":300,"Ġwh":301,"ĠThe":302,"ome":303,"Ġgo":304,"Ġse":305,"all":306,"ur":307,"âĢ":308,"ĠY":309,"Ġas":310,"ch":311,"Ġnot":312,"Ġli":313,"Ġat":314,"ter":315,"ould":316,"Ġhave":317,"Ġthis":318,"ill":319,"ro":320,"ĠD":321,"Ġkn":322,"Ġare":323,"Ġno":324,"Ġ-":325,"ie":326,"ce":327,"Ġthere":328,"if":329,"Ġcan":330,"il":331,"ĠP":332,"ĠN":333,"ust":334,"ook":335,"ct":336,"Ġone":337,"ant":338,"ĠO":339,"Ġthey":340,"Ġhis":341,"Ġshe":342,"Ġknow":343,"Ġj":344,"Ġdon":345,"Ġso":346,"Ġyour":347,"un":348,"xx":349,"Ġwhe":350,"Ġfr":351,"and":352,"ĠG":353,"ĠL":354,"Ġup":355,"eah":356,"ain":357,"Ġher":358,"...":359,"op":360,"ĠF":361,"Ġne":362,"ell":363,"ore":364,"Ġmy":365,"ĠJ":366,"um":367,"Ġall":368,"Ġhad":369,"ab":370,"Ġlike":371,"our":372,"ge":373,"Ġsh":374,"Ġbut":375,"ĠR":376,"Ġ1":377,"pp":378,"ĠE":379,"Ġde":380,"art":381,"ood":382,"ĠĠ":383,"Ġsa":384,"ack":385,"ri":386,"ol":387,"Ġout":388,"Ġhim":389,"Ġget":390,"ĠHe":391,"ck":392,"ink":393,"ake":394,"ul":395,"Ġab":396,"ry":397,"Ġpl":398,"Ġdid":399,"'re":400,"th":401,"ĠIt":402,"Ġal":403,"AT":404,"Ġsee":405,"Ġfrom":406,"ig":407,"Ġlook":408,"ess":409,"han":410,"el":411,"very":412,"IN":413,"Ġoh":414,"ation":415,"red":416,"Ġor":417,"Ġhere":418,"ers":419,"Ġwere":420,"'m":421,"est":422,"qu":423,"Ġby":424,"Ġsu":425,"ist":426,"ĠYou":427,"Ġyeah":428,"ap":429,"ound":430,"na":431,"ame":432,"os":433,"ind":434,"Ġ2":435,"itt":436,"Ġthem":437,"FAT":438,"Ġsome":439,"Ġjust":440,"nt":441,"ard":442,"res":443,"Ġcom":444,"Ġthink":445,"ong":446,"Ġgot":447,"one":448,"own":449,"Ġwant":450,"Ġabout":451,"ak":452,"use":453,"Ġwho":454,"ast":455,"ive":456,"Ġwor":457,"em":458,"Ġwould":459,"ally":460,"Ġsp":461,"].":462,"INV":463,"Ġright":464,"ra":465,"Ġ(":466,"'ll":467,"Ġsaid":468,"Ġif":469,"ĠâĢ":470,"Ġnow":471,"ate":472,"Ġv":473,"ep":474,"ick":475,"Ġcon":476,"Ġbo":477,"Ġex":478,"ort":479,"xxx":480,"Ġxxx":481,"Ġany":482,"Ġthen":483,"ice":484,"kay":485,"Ġsay":486,"ven":487,"ich":488,"ime":489,"Ġwhen":490,"fe":491,"Ġtw":492,"ber":493,"--":494,"Ġman":495,"ough":496,"other":497,"hi":498,"Ġus":499,"ag":500,"Ġput":501,"Ġwill":502,"Ġgood":503,"Ġwhere":504,"hing":505,"ies":506,"ide":507,".\"":508,"Ġpro":509,"ine":510,"Ġint":511,"ous":512,"od":513,"ittle":514,"ther":515,"Ġtr":516,"au":517,"Ġer":518,"Ġag":519,"Ġdown":520,"ear":521,"Ġback":522,"Ġ20":523,"ose":524,"Ġlittle":525,"ost":526,"Ġgoing":527,"ca":528,"Ġcome":529,"Ġcould":530,"Ġtime":531,"Ġbeen":532,"way":533,"ĠK":534,"Ġcl":535,"'ve":536,"Ġbr":537,"Ġover":538,"Ġmore":539,"Ġwhich":540,"Ġwell":541,"Ġ19":542,"Ġvery":543,"Ġhas":544,"Ġ'":545,"lf":546,"ity":547,"ove":548,"Ġoff":549,"ĠâĢľ":550,"Ġar":551,"Ġokay":552,"ace":553,"Ġtwo":554,"Ġtoo":555,"âĢĻ":556,"ree":557,"ĠU":558,"ite":559,"ĠAnd":560,"ĠWhat":561,"Ġqu":562,"Ġhow":563,"AR":564,"âĢĿ":565,"Ġlet":566,"Ġother":567,"Ġplay":568,"ĠSt":569,"ĠĠĠĠ":570,"Ġpe":571,",\"":572,"cause":573,"Ġtheir":574,"Ġthing":575,"Ġbl":576,"Ġgr":577,"Ġfe":578,"are":579,"Ġthan":580,"ft":581,"ure":582,"Ġle":583,"my":584,"ment":585,"Ġaf":586,"ish":587,"reat":588,"alk":589,"ud":590,"ond":591,"Ġyes":592,"add":593,"XP":594,"ĠNo":595,"onna":596,"ĠTh":597,"ase":598,"EXP":599,"orn":600,"Ġro":601,"urn":602,"Ġgonna":603,"ĠShe":604,"Ġdoes":605,"omet":606,"ue":607,"ĠIn":608,"ought":609,"iss":610,"age":611,"ian":612,"hed":613,"Ġmake":614,"uck":615,"Ġinto":616,"Ġagain":617,"ople":618,".=":619,"ect":620,"Ġway":621,"iv":622,"Ġam":623,"Ġtake":624,"irst":625,"ia":626,"ĠWe":627,"ass":628,"ount":629,"ty":630,"ble":631,"ire":632,"ary":633,"Ġsomet":634,"ade":635,"ĠOh":636,"Ġen":637,"PAR":638,"ĠBut":639,"ps":640,"Ġwork":641,"Ġpeople":642,"Ġtell":643,"ĠYeah":644,"Ġco":645,"Ġuh":646,"Ġpr":647,"Ġwat":648,"Ġsha":649,"Ġneed":650,"act":651,"ov":652,"pt":653,"ĠMr":654,"te":655,"Ġfirst":656,"uch":657,"Ġmean":658,"ren":659,"Ġday":660,"Ġhand":661,"self":662,"pl":663,"ise":664,"Ġshould":665,"Ġcall":666,"uh":667,"ress":668,"per":669,"av":670,"so":671,"Ġpart":672,"Ġafter":673,"ull":674,"ang":675,"Ġfl":676,"Ġun":677,"ci":678,"ĠV":679,"ys":680,"ather":681,"ord":682,"ĠThey":683,"nder":684,"Ġbet":685,"mer":686,"we":687,"Ġcar":688,"Ġthr":689,"Ġour":690,"ĠThat":691,"Ġte":692,"wn":693,"augh":694,"Ġcha":695,"Ġevery":696,"fore":697,"les":698,"ff":699,"Ġpo":700,"Ġbecause":701,"Ġpre":702,"Ġmuch":703,"able":704,"int":705,"Ġdidn":706,"Ġonly":707,"ady":708,"ile":709,"ach":710,"Ġchi":711,"be":712,"Ġreally":713,"Ġthese":714,"anna":715,"Ġch":716,"ance":717,"Ġgu":718,"Ġyear":719,"ool":720,"thing":721,"iz":722,"Ġsomething":723,"irl":724,"Ġsec":725,"ng":726,"ouse":727,"ĠSo":728,"ark":729,"Ġwr":730,"Ġdis":731,"Ġmade":732,"oc":733,"ting":734,"Ġwhy":735,"Ġhapp":736,"ne":737,"day":738,"ĠWh":739,"og":740,"ĠWell":741,"ru":742,"cc":743,"Ġwanna":744,"ict":745,"ock":746,"AN":747,"ied":748,"ew":749,"Ġchild":750,"ated":751,"ob":752,"Ġtalk":753,"Ġlong":754,"oh":755,"Ġad":756,"Ġsm":757,"ĠThis":758,"Ġbig":759,"ip":760,"old":761,"ory":762,"Ġke":763,"ub":764,"Ġthree":765,"?\"":766,"Ġbefore":767,"Ġmay":768,"Ġrem":769,"Ġbab":770,"hes":771,"Ġunder":772,"Ġaway":773,"cl":774,"ions":775,"Ġsc":776,"Ġthose":777,"Ġgirl":778,"'d":779,"Ġim":780,"Ġact":781,"Ġcomp":782,"oll":783,"ving":784,"ward":785,"IS":786,"ence":787,"Ġdoing":788,".]":789,"Ġhel":790,"Ġum":791,"Ġturn":792,"Ġwent":793,"RO":794,"Ġper":795,"Ġcr":796,"hen":797,"Ġnever":798,"Ġask":799,"man":800,"ens":801,"gg":802,"Ġapp":803,"Ġalso":804,"Ġthought":805,"Ġold":806,"ĠYes":807,"ful":808,"Ġhome":809,"ĠFr":810,"ix":811,"iend":812,"MA":813,"here":814,"ĠThere":815,"ĠCh":816,"ild":817,"Ġ%":818,"Ġ201":819,"ons":820,"oot":821,"ling":822,"¿½":823,"ï¿½":824,"ath":825,"Ġthings":826,"Ġbook":827,"Ġcame":828,"laugh":829,"Ġple":830,"rd":831,"Ġeven":832,"Ġanother":833,"Ġnew":834,"ious":835,"Ġgive":836,"ks":837,"ans":838,"Ġbit":839,"00":840,"ors":841,"Ġfind":842,"Ġhead":843,"Ġgreat":844,"Ġcont":845,"Ġtry":846,"Ġmust":847,"Ġeat":848,"Ġdone":849,"Ġlove":850,"ved":851,"Ġstart":852,"Ġsl":853,"Ġlea":854,"Ġhelp":855,"Ġthrough":856,"Ġboy":857,"pe":858,"oy":859,"ĠUn":860,"ily":861,"Ġhouse":862,"get":863,"ign":864,"Ġmom":865,"ings":866,"Ġbu":867,"Ġshow":868,"aking":869,"Ġstill":870,"ny":871,"ĠTH":872,"Ġbaby":873,"ait":874,"Ġlast":875,"ried":876,"igh":877,"Ġres":878,"Ġmany":879,"ave":880,"TE":881,"Ġname":882,"air":883,"akes":884,"Ġwon":885,"ww":886,"Ġlot":887,"ail":888,"Ġche":889,"GMA":890,"Ġmight":891,"ms":892,"tain":893,"ars":894,"xt":895,"Ġser":896,"ened":897,"ody":898,"Ġchan":899,"Ġop":900,"aw":901,"ah":902,"als":903,"âĻ":904,"ĠHow":905,"Ġnight":906,"ves":907,"Ġmin":908,"ates":909,"hm":910,"ually":911,"Ġfound":912,"ummy":913,"Ġkind":914,"land":915,"Ġmother":916,"iver":917,"med":918,"Ġdif":919,"Ġbel":920,"up":921,"laughs":922,"âĻª":923,"Ġsit":924,"ult":925,"Ġcomm":926,"Ġcount":927,"anc":928,"ĠAl":929,"chool":930,"port":931,"Ġmov":932,"Ġcare":933,"Ġah":934,"side":935,"Ġrec":936,"ater":937,"oney":938,"Ġfeel":939,"Ġmost":940,"Ġfour":941,"Ġerm":942,".âĢĿ":943,"oth":944,"body":945,"Ġown":946,"Ġcalled":947,"oss":948,"Ġfriend":949,"ĠIf":950,"ĠĠĠĠĠĠĠĠ":951,"ĠBr":952,"Ġbetter":953,"BRO":954,"rent":955,"Ġused":956,"ember":957,"Ġel":958,"und":959,"Ġlooks":960,"Ġaround":961,"Ġsuch":962,"Ġkeep":963,"Ġisn":964,"Ġsure":965,"Ġend":966,"ever":967,"Ġstr":968,"ee":969,"Ġyears":970,"Ġdes":971,"Ġlife":972,"imes":973,"Ġits":974,"Ġbeing":975,"Ġcour":976,"Ġplace":977,"orry":978,"addy":979,"Ġwater":980,"ĠâĻª":981,"Ġanything":982,"Ġey":983,"Ġnice":984,"ĠAs":985,"ere":986,"Ġgl":987,"MCH":988,"uc":989,"ple":990,"inn":991,"ical":992,"Ġball":993,"ways":994,"ited":995,"ĠIs":996,"Ġmat":997,"ince":998,"Ġsame":999,"oun":1000,"ĠDo":1001,"the":1002,"Ġdr":1003,"ank":1004,"Ġstop":1005,"ute":1006,"Ġwhile":1007,"Ġshall":1008,"Ġdoesn":1009,"Ġsupp":1010,"ĠMar":1011,"Ġ3":1012,"Ġwait":1013,"Ġmon":1014,"orm":1015,"Ġplease":1016,"ope":1017,"Ġfin":1018,"ĠBe":1019,"Ġcle":1020,"ican":1021,"Ġroom":1022,"led":1023,"ations":1024,"Ġnext":1025,"Ġrun":1026,"Ġpol":1027,"ident":1028,"row":1029,"Ġtold":1030,"ĠCha":1031,"Ġbre":1032,"Ġschool":1033,"Ġfar":1034,"Ġsw":1035,"ction":1036,"Ġatt":1037,"Ġelse":1038,"Ġset":1039,"pr":1040,"outh":1041,"SIS":1042,"ition":1043,"NAN":1044,"ta":1045,"Ġmhm":1046,"bab":1047,"Ġword":1048,"ont":1049,"Ġwee":1050,"ung":1051,"Ġleft":1052,"ĠAn":1053,"Ġalways":1054,"arly":1055,"Ġread":1056,"Ġdist":1057,"Ġhard":1058,"Ġpoint":1059,"Ġspe":1060,"Ġdiffe":1061,"Ġpres":1062,"mber":1063,"ĠTHE":1064,"aught":1065,"Ġbeg":1066,"!\"":1067,"ĠMummy":1068,"ss":1069,"Ġhold":1070,"Ġ200":1071,"ĠAmer":1072,"Ġfun":1073,"Ġthank":1074,"Ġ_":1075,"ness":1076,"Ġbus":1077,"ĠDon":1078,"The":1079,"Ġfather":1080,"ream":1081,"Ġgone":1082,"ott":1083,"Ġface":1084,"Ġacc":1085,"Ġmen":1086,"Ġunt":1087,"mp":1088,"ohn":1089,"ĠWhy":1090,"Ġbec":1091,"ĠAll":1092,"Ġcol":1093,"Ġtook":1094,"Ġmoney":1095,"ows":1096,"right":1097,"Ġsaw":1098,",âĢĿ":1099,"Ġquite":1100,"Ġac":1101,"vel":1102,"ĠNow":1103,"Ġwalk":1104,"Ġfive":1105,"ph":1106,"ug":1107,"Ġ202":1108,"Ġuse":1109,"ĠCHI":1110,"Ġgoes":1111,"leep":1112,"Ġfam":1113,"Ġdra":1114,"Ġhm":1115,"Ġopen":1116,"Ġob":1117,"pect":1118,"ES":1119,"gr":1120,"Ġind":1121,"Ġbed":1122,"Ġstand":1123,"ĠAr":1124,"Ġnum":1125,"ished":1126,"----":1127,"ĠJohn":1128,"ane":1129,"Ġsorry":1130,"ER":1131,"eb":1132,"Ġenough":1133,"Ġbox":1134,"ĠEr":1135,"Ġsur":1136,"Ġsays":1137,"Ġthough":1138,"ins":1139,"tern":1140,"Ġele":1141,"ters":1142,"Ġuntil":1143,"erson":1144,"Ġhear":1145,"ĠOn":1146,"dy":1147,"Ġcoming":1148,"Ġwatch":1149,"Ġhuh":1150,"ts":1151,"ib":1152,"me":1153,"Ġreal":1154,"Ġcourse":1155,"Ġdoor":1156,"Ġever":1157,"Ġstay":1158,"uff":1159,"ush":1160,"Ġcat":1161,"oon":1162,"ump":1163,"ton":1164,"Ġreg":1165,"az":1166,"amp":1167,"ĠWhen":1168,"Ġwar":1169,"Ġret":1170,"ĠMiss":1171,"Ġtoday":1172,"ĠMrs":1173,"Ġside":1174,"ĠOkay":1175,"ject":1176,"Ġ18":1177,"vent":1178,"Ġpass":1179,"Ġeyes":1180,"OU":1181,"orning":1182,"ces":1183,"Ġknown":1184,"Ġlight":1185,"Ġwom":1186,"Ġred":1187,"Ġpick":1188,"Ġfew":1189,"ower":1190,"Ġnothing":1191,"eak":1192,"ason":1193,"TEA":1194,"Ġair":1195,"Ġbest":1196,"ĠThen":1197,"Ġsing":1198,"ational":1199,"LL":1200,"Ġasked":1201,"ible":1202,"ning":1203,"ĠGr":1204,"ĠThan":1205,"ike":1206,"Ġsix":1207,"Ġ.":1208,"Ġter":1209,"\".":1210,"Ġyoung":1211,"Ġbelie":1212,"Ġyet":1213,"ired":1214,"rew":1215,"Ġph":1216,"Ġseen":1217,"ĠMOT":1218,"ial":1219,"Ġchildren":1220,"ird":1221,"ames":1222,"fta":1223,"Ġpap":1224,"Ġremember":1225,"Ġdifferent":1226,"ger":1227,"Ġhafta":1228,"ĠLet":1229,"Ġi":1230,"Ġupon":1231,"Ġfall":1232,"Ġhur":1233,"Ġfell":1234,"orth":1235,"ier":1236,"Ġmorning":1237,"Ġsecond":1238,"ross":1239,"ĠMay":1240,"Ġleave":1241,"ĠCome":1242,"ased":1243,"Ġlist":1244,"Ġchar":1245,"Ġround":1246,"Ġdear":1247,"uring":1248,"fect":1249,"Ġent":1250,"Ġlooking":1251,"Ġhands":1252,"Ġmind":1253,"ĠDe":1254,"ĠMom":1255,"ween":1256,"ĠNew":1257,"mb":1258,"gether":1259,"Ġmar":1260,"Ġtogether":1261,"Ġgetting":1262,"ash":1263,"Ġkill":1264,"ING":1265,"ret":1266,"oor":1267,"Ġrel":1268,"ĠEd":1269,"You":1270,"ures":1271,"Ġmil":1272,"cle":1273,"Ġbro":1274,"ines":1275,"Ġsound":1276,"ister":1277,"ĠCan":1278,"by":1279,"Ġsmall":1280,"Ġhimself":1281,"ollow":1282,"Ġrest":1283,"Ġtri":1284,"RA":1285,"Ġonce":1286,"ĠMy":1287,"huh":1288,"ĠAt":1289,"Ġbetween":1290,"Ġpret":1291,"ĠInd":1292,"Ġboth":1293,"ork":1294,"Ġheart":1295,"Ġsil":1296,"Ġsleep":1297,"ĠHey":1298,"cha":1299,"ener":1300,"Ġfoot":1301,"ĠFor":1302,"its":1303,"Ġanim":1304,"ĠMm":1305,"Ġpie":1306,"FCH":1307,"ma":1308,"ĠNot":1309,"oe":1310,"Ġbad":1311,"most":1312,"less":1313,"Ġeach":1314,"but":1315,"omb":1316,"Ġhaving":1317,"Ġmm":1318,"Ġhigh":1319,"une":1320,"Ġtable":1321,"Ġheard":1322,"ĠChr":1323,"ctor":1324,"Ġcap":1325,"ating":1326,"Ġlater":1327,"Ġhalf":1328,"ange":1329,"Ġwithout":1330,"Ġca":1331,"ĠAmerican":1332,").":1333,"ball":1334,"Ġ4":1335,"reen":1336,"Ġready":1337,"der":1338,"Ġmaking":1339,"ote":1340,"Ġwind":1341,"ets":1342,"Ġalright":1343,"Ġworld":1344,"Ġnoise":1345,"Ġpop":1346,"ered":1347,"ok":1348,"Ġï¿½":1349,"Ġsn":1350,"oice":1351,"Ġtop":1352,"Ġsoon":1353,"Ġcons":1354,"Ġchair":1355,"Ġsort":1356,"AD":1357,"ents":1358,"Ġdec":1359,"ĠGod":1360,"Ġpretty":1361,"Ġknew":1362,"Ġperson":1363,"br":1364,"stand":1365,"Ġinst":1366,"Ġagainst":1367,"Oh":1368,"ises":1369,"Ġmove":1370,"Ġdied":1371,"ocal":1372,"Ġlooked":1373,"Ġdire":1374,"ama":1375,"Ġmaybe":1376,"ged":1377,"Ġhappened":1378,"Ġeverything":1379,"Ġ5":1380,"Ġsk":1381,"Ġtalking":1382,"Ġwanted":1383,"Ġ199":1384,"any":1385,"Ġhaven":1386,"bo":1387,"Ġhey":1388,"ĠJust":1389,"cept":1390,"ĠGer":1391,"Ġmus":1392,"ife":1393,"ĠCl":1394,"ĠâĢĵ":1395,"\",":1396,"ched":1397,"ision":1398,"Ġfollow":1399,"Ġblack":1400,"Ġmiss":1401,"osed":1402,"ON":1403,"iet":1404,"pped":1405,"erest":1406,"www":1407,"ĠDaddy":1408,"ief":1409,"Ġdog":1410,"Ġnumber":1411,"ertain":1412,"ĠRe":1413,"ĠUnited":1414,"Ġhell":1415,"Ġmeet":1416,"Ġans":1417,"uss":1418,"part":1419,"Ġlive":1420,"Ġfire":1421,"Ġdri":1422,"),":1423,"Ġhour":1424,"den":1425,"unt":1426,"Ġbring":1427,"ĠAf":1428,"Ġeight":1429,"ale":1430,"Ġinterest":1431,"ither":1432,"Ġactually":1433,"ern":1434,"Ġgave":1435,"key":1436,"tend":1437,"wards":1438,"cial":1439,"Ġborn":1440,"Ġlar":1441,"ĠEng":1442,"Ġcut":1443,"Ġass":1444,"ubl":1445,"ches":1446,"Ġbreak":1447,"hy":1448,"OR":1449,"Ġdays":1450,"Ġmoment":1451,"Ġwond":1452,"Ġtown":1453,"Ġcur":1454,"ĠSh":1455,"Ġfamily":1456,"Ġgame":1457,"Ġadd":1458,"clud":1459,"Ġquest":1460,"Ġfood":1461,"io":1462,"bably":1463,"ual":1464,"iness":1465,"ĠGood":1466,"att":1467,"ĠMe":1468,"Ġsub":1469,"ised":1470,"Ġcity":1471,"Ġtrain":1472,"Ġbelieve":1473,"Ġaw":1474,"Ġdar":1475,"Ġinv":1476,"Ġid":1477,"ĠCar":1478,"ĠHar":1479,"Ġtrying":1480,"Ġhor":1481,"sel":1482,"ced":1483,"aut":1484,"ĠAre":1485,"ax":1486,"Ġpaper":1487,"Ġsince":1488,"Ġmet":1489,"Ġhat":1490,"Ġstory":1491,"Ġalong":1492,"sh":1493,"Ġmatter":1494,"Ġwhole":1495,"ĠGo":1496,"Ġboys":1497,"Ġkid":1498,"ready":1499,"Ġfact":1500,"Ġeas":1501,"app":1502,"ully":1503,"icha":1504,"Ġalmost":1505,"Ġwasn":1506,"Ġref":1507,"Ġdel":1508,"Ġpict":1509,"ĠHis":1510,"enn":1511,"It":1512,"ony":1513,"Ġdraw":1514,"ield":1515,"ĠWho":1516,"ye":1517,"Ġclose":1518,"Ġsqu":1519,"oke":1520,"Ġinter":1521,"ĠSe":1522,"ĠZ":1523,"enty":1524,"uth":1525,"ative":1526,"hip":1527,"vers":1528,"GRA":1529,"ics":1530,"Ġstick":1531,"Ġteam":1532,"Ġunderstand":1533,"orrow":1534,"ular":1535,"Ġhot":1536,"vern":1537,"Ġdrink":1538,"ĠChrist":1539,"Ġcomes":1540,"ery":1541,"ined":1542,"Ġdoll":1543,"aj":1544,"Ġjob":1545,"ants":1546,"ĠWhere":1547,"elt":1548,"ĠAd":1549,"Ġstarted":1550,"Ġsaying":1551,"Ġalready":1552,"Ġswe":1553,"Ġspeak":1554,"Ġreturn":1555,"Ġpull":1556,"ĠStates":1557,"ĠThank":1558,"Ġguess":1559,"Ġstuff":1560,"Ġdarling":1561,"Ġ6":1562,"ped":1563,"aken":1564,"Ġrep":1565,"ĠRight":1566,"Ġblue":1567,"ten":1568,"Ġexc":1569,"EN":1570,"aster":1571,"Ġnear":1572,"Ġlaugh":1573,"Ġwouldn":1574,"ĠFl":1575,"ities":1576,"Ġten":1577,"Ġplaying":1578,"Ġposs":1579,"Ġwonder":1580,"ouch":1581,"Ġ198":1582,"And":1583,"Ġprobably":1584,"rict":1585,"ives":1586,"ina":1587,"ries":1588,"Ġdro":1589,"Ġimp":1590,"Ġbuild":1591,"Ġsign":1592,"Ġbrother":1593,"Ġland":1594,"ï¿½ï¿½":1595,"Ġtimes":1596,"Ġsent":1597,"Ġhair":1598,"Ġwrong":1599,"Ã©":1600,"Ġwoman":1601,"Ġdisc":1602,"Ġplayed":1603,"ĠSte":1604,"Ġfeet":1605,"oup":1606,"Ġinc":1607,"Ġinf":1608,"ues":1609,"Ġhope":1610,"ĠSp":1611,"Ġproble":1612,"ner":1613,"ĠOne":1614,"oud":1615,"ĠWill":1616,"Ġson":1617,"Ġpur":1618,"Ġcent":1619,"ĠCom":1620,"Ġminute":1621,"to":1622,"where":1623,"Ġwhite":1624,"Ġfriends":1625,"Ġpay":1626,"ĠTom":1627,"iew":1628,"Ġvoice":1629,"Ġ8":1630,"Ġgi":1631,"Ġsy":1632,"ape":1633,"?âĢĿ":1634,"Ġinclud":1635,"ĠJap":1636,"ted":1637,"ĠQ":1638,"ĠBen":1639,"ific":1640,"Ġtra":1641,"Ġduring":1642,"19":1643,"Ġmonth":1644,"kes":1645,"Ġfloor":1646,"Ġconf":1647,"ĠDid":1648,"Ġcountry":1649,"ying":1650,"itting":1651,"Ġmeans":1652,"Ġfull":1653,"KF":1654,"ĠLook":1655,"Ġplan":1656,"ital":1657,"Ġ7":1658,"ently":1659,"Ġpoor":1660,"Ġsim":1661,"ĠCount":1662,"ense":1663,"Ġlost":1664,"Ġidea":1665,"haps":1666,"undred":1667,"Ġyell":1668,"Ġgotta":1669,"ats":1670,"aces":1671,"Ġste":1672,"Ġquick":1673,"airs":1674,"ivers":1675,"Ġmovie":1676,"UR":1677,"Ġbecame":1678,"Ġbeaut":1679,"Ġleg":1680,"Ġdeath":1681,"Ġbrought":1682,"Ġstud":1683,"Ġhappy":1684,"child":1685,"oes":1686,"ole":1687,"ĠBart":1688,"Ġstate":1689,"Ġrather":1690,"Ġyourself":1691,"Ġseemed":1692,"ones":1693,"Ġones":1694,"ize":1695,"Ġmine":1696,"Ġform":1697,"ster":1698,"aid":1699,"eth":1700,"ared":1701,"cess":1702,"Ġgrand":1703,"ages":1704,"oint":1705,"Ġexp":1706,"ĠYOU":1707,"ĠIN":1708,"Ġhundred":1709,"Ġcoll":1710,"Ġpain":1711,"Ġshort":1712,"Ġcertain":1713,"Ġfine":1714,"cted":1715,"inner":1716,"cil":1717,"Ġgirls":1718,"Ġgreen":1719,"ley":1720,"Ġsir":1721,"olog":1722,"ald":1723,"Ġcontin":1724,"Ġturned":1725,"wer":1726,"Ġmag":1727,"ĠDav":1728,"room":1729,"ĠPh":1730,"Ġweek":1731,"Ġage":1732,"Ġbeh":1733,"Ġmusic":1734,"ring":1735,"Ġ197":1736,"Ġbegan":1737,"rest":1738,"ene":1739,"bles":1740,"ica":1741,"Ġexpl":1742,"Ġwords":1743,"eter":1744,"Ġear":1745,"Ġgener":1746,"Uh":1747,"Ġhi":1748,"ĠTe":1749,"ments":1750,"Ġdaddy":1751,"ese":1752,"Ġlead":1753,"ober":1754,"Ġmouth":1755,"Ġmakes":1756,"Ġfront":1757,"Ġaren":1758,"son":1759,"ĠLe":1760,"cy":1761,"rap":1762,"ided":1763,"Ġmyself":1764,"ĠBl":1765,"Ġtaken":1766,"ention":1767,"Ġoutside":1768,"What":1769,"]?":1770,"Ġprod":1771,"wh":1772,"Ġfav":1773,"ĠPro":1774,"Ġprom":1775,"utes":1776,"Ġsat":1777,"Ġlady":1778,"ĠPe":1779,"sing":1780,"Ġparty":1781,"ison":1782,"ask":1783,"ured":1784,"Ġdat":1785,"Ġable":1786,"Ġcolor":1787,"Ġarea":1788,"ĠChar":1789,"ressed":1790,"Ġwants":1791,"Well":1792,"aser":1793,"Ġbehind":1794,"Ġfight":1795,"Ġcry":1796,"omba":1797,"Ġdead":1798,"Ġhappen":1799,"Ġstra":1800,"Ġtele":1801,"ford":1802,"irty":1803,"Ġpen":1804,"Ġsong":1805,"ized":1806,"Ġ9":1807,"ĠGe":1808,"ĠCounty":1809,"ury":1810,"Ġprov":1811,"Ġwrite":1812,"Ġcir":1813,"Ġtre":1814,"Ġfro":1815,"olly":1816,"ral":1817,"Ġes":1818,"ik":1819,"used":1820,"Ġtaking":1821,"ĠPr":1822,"selves":1823,"Ġimport":1824,"ruary":1825,"Ġfunny":1826,"ebruary":1827,"iful":1828,"Ġless":1829,"Ġmain":1830,"ĠMommy":1831,"fully":1832,"Ġfelt":1833,"DAD":1834,"Ġgiven":1835,"iam":1836,"Ġbusiness":1837,"Ġoffic":1838,"ouble":1839,"Ġtoys":1840,"Ġcase":1841,"Ġed":1842,"ĠJapan":1843,"ĠHer":1844,"Ġext":1845,"Ġrecord":1846,"Ġoften":1847,"ĠTO":1848,"lish":1849,"Ġline":1850,"Ġbear":1851,"Ġanimals":1852,"ĠAfter":1853,"Yeah":1854,"Ġmommy":1855,"Ġminutes":1856,"head":1857,"irth":1858,"not":1859,"ider":1860,"no":1861,"Ġpat":1862,"Ġlear":1863,"ĠâĢĺ":1864,"Ġguys":1865,"But":1866,"EL":1867,"Ġserv":1868,"Ġquestion":1869,"Ġbar":1870,"Ġdeal":1871,"Ġchange":1872,"anger":1873,"Ġya":1874,"ĠFebruary":1875,"Ġsometimes":1876,"Ġhello":1877,"ĠEle":1878,"Ġlate":1879,"essie":1880,"end":1881,"ĠBomba":1882,"Yes":1883,"anor":1884,"ĠTo":1885,"Ġ196":1886,"Ġtwenty":1887,"Ġmess":1888,"Ġtom":1889,"Ġocc":1890,"ĠFraser":1891,"Ġduck":1892,"ĠAN":1893,"Ġpresent":1894,"lease":1895,"rence":1896,"ĠTr":1897,"Ġeither":1898,"ĠĠĠĠĠĠĠĠĠĠĠĠĠĠĠĠ":1899,"Ġpicture":1900,"ey":1901,"reet":1902,"Ġev":1903,"Ġseven":1904,"Ġcold":1905,"gin":1906,"Ġtill":1907,"ander":1908,"ained":1909,"Ġmed":1910,"ada":1911,"Ġlisten":1912,"Ġleast":1913,"Ġbott":1914,"ert":1915,"Ġbase":1916,"Ġsomeone":1917,"ipp":1918,"ĠEx":1919,"Ġcouldn":1920,"ĠAb":1921,"ĠJan":1922,"Ġpiece":1923,"ots":1924,"Ġyellow":1925,"ffe":1926,"Ġrock":1927,"gan":1928,"ara":1929,"ĠSome":1930,"ides":1931,"Ġsweet":1932,"gie":1933,"LD":1934,"ming":1935,"ĠCon":1936,"Ġhum":1937,"amed":1938,"Ġvis":1939,"oub":1940,"ards":1941,"ĠYork":1942,"Ġem":1943,"ĠMag":1944,"Ġboat":1945,"ĠIndian":1946,"ze":1947,"owing":1948,"Ã¡":1949,"aughter":1950,"uly":1951,"Ġcook":1952,"Ġhorse":1953,"ality":1954,"arent":1955,"Ġfig":1956,"Ġins":1957,"Ġfif":1958,"ĠSc":1959,"illy":1960,"Ġhurt":1961,"Ġpubl":1962,"ains":1963,"Ġlarge":1964,"RE":1965,"unch":1966,"No":1967,"Ġroad":1968,"Ġstrong":1969,"Ġguy":1970,"Ġdef":1971,"iously":1972,"fort":1973,"ĠGu":1974,"Ġpri":1975,"Ġpolit":1976,"Ġcra":1977,"ĠYour":1978,"born":1979,"Ġago":1980,"Ġbirth":1981,"Ġinside":1982,"idge":1983,"ĠBar":1984,"unk":1985,"Ġ10":1986,"Ġalone":1987,"Ġwife":1988,"Ġwish":1989,"Ġbeautiful":1990,"ham":1991,"Ġgovern":1992,"Ġmid":1993,"ĠGet":1994,"Ġrepl":1995,"Ġbody":1996,"Ġtrue":1997,"Ġherself":1998,"Ġothers":1999,"Ġeng":2000,"ution":2001,"zz":2002,"20":2003,"ĠDavid":2004,"Ġdark":2005,"UN":2006,"Ġpar":2007,"ned":2008,"Ġdinner":2009,"uary":2010,"Ġbooks":2011,"dle":2012,"iting":2013,"read":2014,"ĠEl":2015,"We":2016,"Ġimportant":2017,"Ġground":2018,"Ġfore":2019,"Ġreason":2020,"aul":2021,"Ġfish":2022,"Ġpower":2023,"ĠOr":2024,"Ġcheck":2025,"Ġfing":2026,"ĠBessie":2027,"Ġletter":2028,"aim":2029,"ĠHere":2030,"AS":2031,"ety":2032,"aur":2033,"ĠErm":2034,"ĠBob":2035,"RI":2036,"atur":2037,"een":2038,"Ġtree":2039,"lex":2040,"Ġfair":2041,"Ġty":2042,"Ġopp":2043,"Ġgets":2044,"Ġfinished":2045,"Ġclean":2046,"Ġblock":2047,"Ġworking":2048,"icip":2049,"Ġdistrict":2050,"ĠWith":2051,"Ġmark":2052,"Ġwear":2053,"TER":2054,"Ġmill":2055,"ept":2056,"Ġlay":2057,"Ġtrans":2058,"Ġsister":2059,"ator":2060,"Ġlad":2061,"Ġ17":2062,"ousand":2063,"II":2064,"ĠCH":2065,"ists":2066,"Ġadv":2067,"ĠWar":2068,"ĠChi":2069,"Ġgun":2070,"Ġlov":2071,"oof":2072,"aced":2073,"ately":2074,"--------":2075,"LE":2076,"000":2077,"Ġforg":2078,"Ġpast":2079,"Ġfuck":2080,"els":2081,"Ġsum":2082,"Ġorder":2083,"Ġhon":2084,"you":2085,"Ġsun":2086,"gy":2087,"Ġtried":2088,"ĠPl":2089,"Ġdepart":2090,"Ġexam":2091,"Ġamong":2092,"Ġrece":2093,"iving":2094,"ĠJack":2095,"Ġ195":2096,"let":2097,"iding":2098,"Ġearly":2099,"umb":2100,"itch":2101,"Ġart":2102,"Ġacross":2103,"Ġtouch":2104,"Ġpos":2105,"Ġsitting":2106,"ism":2107,"Ġbath":2108,"Ġlo":2109,"ana":2110,"Ġra":2111,"Ġriver":2112,"Ġstar":2113,"ĠX":2114,"ĠEleanor":2115,"angu":2116,"ichael":2117,"Ġproblem":2118,"for":2119,"Ġlived":2120,"ĠTw":2121,"Ġreac":2122,"ken":2123,"pril":2124,"Ġda":2125,"teen":2126,"ĠEnglish":2127,"Ġroll":2128,"ering":2129,"ĠPhil":2130,"Ġprot":2131,"Ġfootball":2132,"Ġsomebody":2133,"Ġglad":2134,"Ġbur":2135,"Ġchance":2136,"Ġ...":2137,"Ġran":2138,"ĠMan":2139,"ĠJanuary":2140,"Ġcup":2141,"lly":2142,"bit":2143,"gas":2144,"ement":2145,"Ġexpect":2146,"Ġfree":2147,"Ġbuy":2148,"men":2149,"tle":2150,"Ġmilk":2151,"ĠAh":2152,"ĠOF":2153,"URS":2154,"fr":2155,"cri":2156,"rat":2157,"Ġnews":2158,"owed":2159,"Ġclass":2160,"Ġconc":2161,"Ġattack":2162,"ges":2163,"ices":2164,"ĠWor":2165,"acher":2166,"Ġmot":2167,"Ġthousand":2168,"Ġsever":2169,"Ġwin":2170,"ovember":2171,"bed":2172,"Ġclot":2173,"Ġjo":2174,"Ġsilver":2175,"Ġtea":2176,"Ġseems":2177,"ric":2178,"Ġnine":2179,"ĠGeor":2180,"Ġkiss":2181,"Ġphone":2182,"raid":2183,"Ġbag":2184,"Ġhit":2185,"ĠSir":2186,"Ġfavor":2187,"ek":2188,"ĠBecause":2189,"That":2190,"ature":2191,"Ġheld":2192,"ĠSha":2193,"Ġknows":2194,"Ġtomorrow":2195,"velop":2196,"que":2197,"Ġthinking":2198,"Ġfast":2199,"Ġlaw":2200,"Ġ15":2201,"Ġfrog":2202,"ium":2203,"ays":2204,"Ġkilled":2205,"ional":2206,"eared":2207,"ĠKing":2208,"Ġobject":2209,"AP":2210,"Ġpu":2211,"Ġappro":2212,"Ġseveral":2213,"ued":2214,"Ġtakes":2215,"Ġbird":2216,"OL":2217,"ĠGerman":2218,"eng":2219,"Ġyours":2220,"ulation":2221,"Ġz":2222,"ĠBrit":2223,"Ġcreat":2224,"Ġseries":2225,"US":2226,"Ġarm":2227,"Ġresp":2228,"ead":2229,"Ġvill":2230,"Ġdad":2231,"Ġquiet":2232,"alth":2233,"ically":2234,"Ġmod":2235,"Ġnorth":2236,"Ġperhaps":2237,"zy":2238,"ĠNovember":2239,"ĠPer":2240,"Ġ194":2241,"Ġgroup":2242,"Ġsurpr":2243,"Ġsend":2244,"iter":2245,"Ġlangu":2246,"ney":2247,"Ġcompany":2248,"Ġlovely":2249,"TH":2250,"ello":2251,"Ġooh":2252,"itc":2253,"eed":2254,"ĠJane":2255,"min":2256,"Ġblood":2257,"Ġtoy":2258,"ilt":2259,"vision":2260,"ĠCol":2261,"Ġ2021":2262,"Ġwood":2263,"though":2264,"Ġjump":2265,"yl":2266,"Ġconst":2267,"Ġ2020":2268,"Ġdress":2269,"ĠCap":2270,"Ġwall":2271,"ived":2272,"co":2273,"ĠMama":2274,"amer":2275,"itten":2276,"iversity":2277,"rench":2278,"Ġliving":2279,"Ġnose":2280,"singing":2281,"ĠEvery":2282,"Ġbirthday":2283,"ĠSteven":2284,"ĠMc":2285,"Ġkept":2286,"arch":2287,"osp":2288,"Ġsoft":2289,"Ġcounty":2290,"Ġusually":2291,"ician":2292,"arth":2293,"Ġafraid":2294,"Ġcarry":2295,"gue":2296,"Ġwow":2297,"stem":2298,"ility":2299,"Ġdaughter":2300,"ĠFrance":2301,"ient":2302,"Ġheav":2303,"Ġpoints":2304,"erv":2305,"ĠSw":2306,"ĠMaggie":2307,"Ġstep":2308,"Ġuhhuh":2309,"ED":2310,"Ġanswer":2311,"Ġstraight":2312,"Ġcou":2313,"Ġfix":2314,"Ġtick":2315,"Ġsold":2316,"Ġrele":2317,"iff":2318,"Ġreport":2319,"Ġhist":2320,"aint":2321,"Ġprof":2322,"irt":2323,"Ġlots":2324,"Ġnin":2325,"Ġrunning":2326,"Ġann":2327,"overed":2328,"Ġcorn":2329,"ĠWorld":2330,"ract":2331,"Ġshop":2332,"Ġclear":2333,"Ġseat":2334,"Ġcharac":2335,"ĠAND":2336,"ĠGrand":2337,"Ġmember":2338,"com":2339,"mon":2340,"Ġain":2341,"ĠCal":2342,"Ġvocal":2343,"Ġtrouble":2344,"Ġwithin":2345,"OM":2346,"Ġice":2347,"Ġla":2348,"ctober":2349,"ause":2350,"Ġpot":2351,"dden":2352,"Ġcray":2353,"Ġeating":2354,"ounter":2355,"ĠPaul":2356,"ration":2357,"Ġcamp":2358,"Ġmonths":2359,"Ġfield":2360,"He":2361,"Ġdiff":2362,"ĠApril":2363,"ĠPar":2364,"ĠOf":2365,"Ġfur":2366,"Ġve":2367,"ĠJoe":2368,"Ġbecome":2369,"Ġhours":2370,"ajor":2371,"Ġcareful":2372,"ĠPat":2373,"Ġworked":2374,"Ġstood":2375,"Ġ16":2376,"wered":2377,"gram":2378,"Ġcannot":2379,"makes":2380,"inning":2381,"Ġnamed":2382,"ĠJuly":2383,"Ġcross":2384,"ĠCr":2385,"Ġsudden":2386,"ĠMichael":2387,"Ġwhether":2388,"Ġsea":2389,"ggy":2390,"band":2391,"Ġbreat":2392,"ls":2393,"Ġhung":2394,"urch":2395,"ograp":2396,"Ġ12":2397,"Ġmarried":2398,".'":2399,"par":2400,"Ġforward":2401,"!âĢĿ":2402,"Ġtired":2403,"Ġring":2404,"ĠDr":2405,"ounds":2406,"Ġeverybody":2407,"Ġwomen":2408,"ping":2409,"Ġcried":2410,"Ġthrow":2411,"Ġcor":2412,"actly":2413,"Ġpartic":2414,"Ġfit":2415,"Ġpage":2416,"Ġthemselves":2417,"entle":2418,"Ġdream":2419,"hern":2420,"Ġanswered":2421,"eptember":2422,"Ġclothes":2423,"Ġhang":2424,"ĠThese":2425,"Ġlives":2426,"ccess":2427,"Ġsuppose":2428,"Ġspecial":2429,"ĠHave":2430,"ĠPlease":2431,"ĠNorth":2432,"ĠBy":2433,"Ġclim":2434,"ugust":2435,"Ġmer":2436,"ĠOctober":2437,"ude":2438,"Ġseem":2439,"Ġton":2440,"aged":2441,"Ġcatch":2442,"Ġdevelop":2443,"Ġsand":2444,"Ġlow":2445,"âĢĵ":2446,"Ġcomple":2447,"Ġpassed":2448,"Ġcond":2449,"Ġrain":2450,"Ġfly":2451,"ories":2452,"Ġpig":2453,"Ġdepartment":2454,"Ġband":2455,"empt":2456,"Ġknock":2457,"ored":2458,"Ġeasy":2459,"Ġpost":2460,"ĠAm":2461,"ĠSIS":2462,"Ġpretend":2463,"Ġproper":2464,"Ġspec":2465,"Ġcouple":2466,"uk":2467,"Ġdoctor":2468,"Ġpossible":2469,"Ġfil":2470,"Ġbroken":2471,"ding":2472,"Ġegg":2473,"ouncil":2474,"Ġsystem":2475,"Ġill":2476,"ĠAust":2477,"mother":2478,"Ġfeeling":2479,"Ġpleas":2480,"Ġsounds":2481,"Ġputting":2482,"ĠAdam":2483,"Ġdanger":2484,"ĠCharl":2485,"Ġtelevision":2486,"ĠMa":2487,"Ġ193":2488,"ondon":2489,"Ġcommun":2490,"Ġexper":2491,"Ġstation":2492,"stairs":2493,"ĠEdna":2494,"ĠAlex":2495,"Ġpolic":2496,"Ġnational":2497,"ĠSeptember":2498,"gar":2499,"Ġdoub":2500,"oops":2501,"Ġcontro":2502,"net":2503,"Ġju":2504,"icks":2505,"Ġdiffic":2506,"Ġcow":2507,"Ġhors":2508,"joy":2509,"rigin":2510,"va":2511,"Ġslow":2512,"Ġdest":2513,"Ġpush":2514,"Ġord":2515,"ĠSouth":2516,"Ġkids":2517,"Ġarri":2518,"Ġmillion":2519,"gasps":2520,"Ġlikes":2521,"Ġwindow":2522,"ĠLondon":2523,"ffect":2524,"Ġdie":2525,"ĠAg":2526,"Ġabs":2527,"Ġarms":2528,"Ġcool":2529,"Ġneeds":2530,"âĢĶ":2531,"ĠGreat":2532,"ogn":2533,"itty":2534,"Ġview":2535,"ĠIT":2536,"owers":2537,"more":2538,"ĠAugust":2539,"ears":2540,"uts":2541,"ID":2542,"ager":2543,"unicip":2544,"Ġdiv":2545,"ÃŃ":2546,"Ġsal":2547,"Ġcirc":2548,"Ġforget":2549,"ĠHi":2550,"har":2551,"Ġstat":2552,"ights":2553,"ĠPres":2554,"ĠLea":2555,"ĠAny":2556,"GH":2557,"Ġreleased":2558,"ances":2559,"Ġgovernment":2560,"Ġwaiting":2561,"Ġwhatever":2562,"ĠDan":2563,"ĠCity":2564,"Ġcause":2565,"Ġgentle":2566,"Ġworry":2567,"Ġoper":2568,"ĠEur":2569,"ĠKe":2570,"friend":2571,"ox":2572,"ode":2573,"box":2574,"SS":2575,"Ġabove":2576,"ĠThom":2577,"Ġsupport":2578,"form":2579,"babbles":2580,"'.":2581,"Ġnoises":2582,"Ġmoved":2583,"Ġhus":2584,"Ġvar":2585,"ked":2586,"ardon":2587,"Ġoffice":2588,"ai":2589,"Ġevent":2590,"Ġking":2591,"Ġhowever":2592,"emy":2593,",--":2594,"Ġhar":2595,"ĠAunt":2596,"that":2597,"amb":2598,"Ġmur":2599,"igg":2600,"Ġtonight":2601,"ĠHello":2602,"Ġcos":2603,"Ġmiles":2604,"ĠRos":2605,"Ġequ":2606,"Ġputs":2607,"ĠMaybe":2608,"Ġest":2609,"cember":2610,"cient":2611,"ops":2612,"Ġchanged":2613,"ler":2614,"Ġseason":2615,"ĠPol":2616,"Ġsuccess":2617,"oren":2618,"Ġstanding":2619,"Ġorgan":2620,"Ġrequ":2621,"oose":2622,"Ġgold":2623,"Ġtelling":2624,"Ġtruck":2625,"Ġpolice":2626,"well":2627,"Ġsca":2628,"Ġperfect":2629,"Ġshoot":2630,"Ġ#":2631,"Ġrecogn":2632,"uced":2633,"uce":2634,"Ġtowards":2635,"ĠĠĠĠĠĠ":2636,"sings":2637,"Ġfa":2638,"Ġwhom":2639,"urs":2640,"ĠFrench":2641,"Ġbye":2642,"ĠRep":2643,"Ġcaught":2644,"ĠHel":2645,"Ġanyway":2646,"Ġmeant":2647,"ĠMarch":2648,"Ġluck":2649,"rod":2650,"lo":2651,"Ġshot":2652,"Ġshar":2653,"Ġeffect":2654,"Ġwhose":2655,"rave":2656,"ising":2657,"Ġstru":2658,"ĠCaptain":2659,"Ġgod":2660,"ĠFrank":2661,"con":2662,"come":2663,"Ġcal":2664,"Ġmist":2665,"terday":2666,"Ġnearly":2667,"mbers":2668,"fer":2669,"ceed":2670,"ĠJe":2671,"resent":2672,"noon":2673,"Ġenjoy":2674,"Ġshoes":2675,"Ġreturned":2676,"ĠWest":2677,"Ġ11":2678,"Ġexcl":2679,"Ġwritten":2680,"Ġow":2681,"ĠSee":2682,"ĠJune":2683,"itchen":2684,"fast":2685,"ror":2686,"Ġshut":2687,"ified":2688,"mas":2689,"ĠJose":2690,"Ġthirty":2691,"Ġpopulation":2692,"ffee":2693,"]!":2694,"Ġmunicip":2695,"ĠComm":2696,"reed":2697,"Ġpress":2698,"iron":2699,"Ġhop":2700,"Ġformer":2701,"ĠFrom":2702,"ĠUniversity":2703,"ĠDad":2704,"ray":2705,"Ġdirect":2706,"Ġesc":2707,"Ġvocalises":2708,"Ġcover":2709,"Ġafternoon":2710,"Ġorigin":2711,"Ġkitchen":2712,"Ġ2018":2713,"Ġtest":2714,"Ġsick":2715,"ĠMin":2716,"counter":2717,"Ġfill":2718,"ĠWH":2719,"Ġprogram":2720,"Ġboard":2721,"Ġclos":2722,"Ġpract":2723,"rupt":2724,"Ġquickly":2725,"la":2726,"ior":2727,"Ġdet":2728,"phone":2729,"che":2730,"atter":2731,"Ġjack":2732,"Ġdisapp":2733,"ggest":2734,"ĠOK":2735,"ĠDecember":2736,"Ġlanguage":2737,"Ġhusband":2738,"uit":2739,"VE":2740,"over":2741,"Ġchick":2742,"Ġbroke":2743,"Ġbuilding":2744,"CHILD":2745,"uct":2746,"ground":2747,"eal":2748,"Ġ!":2749,"Ġride":2750,"Ġfellow":2751,"Ġturns":2752,"ĠThomas":2753,"ience":2754,"Ġban":2755,"ency":2756,"Ġsuggest":2757,"cially":2758,"Ġmis":2759,"Ġfear":2760,"rible":2761,"Ġmad":2762,"Ġtoward":2763,"Ġship":2764,"Ġchildes":2765,"CHILDES":2766,"ron":2767,"Ġahead":2768,"Ġcost":2769,"Ġdeep":2770,"Ġlonger":2771,"Ġfarm":2772,"aimed":2773,"ĠBritish":2774,"ĠNational":2775,"ula":2776,"Ġought":2777,"ĠChe":2778,"Ġfollowing":2779,"Ġexactly":2780,"Ġdrive":2781,"Ġeye":2782,"arden":2783,"Ġisland":2784,"ĠMum":2785,"Ġposition":2786,"OW":2787,"ĠThanks":2788,"AM":2789,"rs":2790,"yn":2791,"Ġcharacter":2792,"ĠWas":2793,"Ġfort":2794,"Ġevening":2795,"Ġinstead":2796,"Ġfat":2797,"Ġexcept":2798,"view":2799,"oop":2800,"Ġsafe":2801,"Ġreplied":2802,"Ġav":2803,"Ġsight":2804,"Ġmembers":2805,"rop":2806,"Ġprop":2807,"ĠUh":2808,"Ġvisit":2809,"Ġfigure":2810,"Ġlie":2811,"reek":2812,"Ġregion":2813,"AL":2814,"Ġanyone":2815,"Ġpublic":2816,"Ġsave":2817,"Ġfinish":2818,"Ġtot":2819,"Ġdem":2820,"Ġcommon":2821,"Ġmonkey":2822,"Ġvillage":2823,"Ġtow":2824,"aud":2825,"Ġwild":2826,"Ġyesterday":2827,"Ġ2019":2828,"Ġspend":2829,"Ġhaha":2830,"ĠSm":2831,"Ġhappens":2832,"Ġparent":2833,"Ġworth":2834,"ighb":2835,"cent":2836,"Ġ14":2837,"Ġwrote":2838,"Ġcast":2839,"Ġsuper":2840,"uation":2841,"Ġeh":2842,"uthor":2843,"Ġstuck":2844,"ĠJim":2845,"Ġmiddle":2846,"Ġwhis":2847,"ift":2848,"Ġcoffee":2849,"Ġcamer":2850,"Ġdi":2851,"oles":2852,"Ġru":2853,"Ġprotect":2854,"bur":2855,"ĠEm":2856,"Ġdecided":2857,"ĠEngland":2858,"Ġcurrent":2859,"Ġtem":2860,"ffic":2861,"Ġpieces":2862,"idence":2863,"ĠNe":2864,"ĠBrad":2865,"Ġinterested":2866,"ospital":2867,"night":2868,"Ġbutter":2869,"ELS":2870,"estern":2871,"ĠEve":2872,"COL":2873,"acy":2874,"Ġbow":2875,"Ġmount":2876,"time":2877,"ino":2878,"ining":2879,"Ġsus":2880,"Ġgiving":2881,"ichard":2882,"ums":2883,"ians":2884,"Ġmeeting":2885,"Ġjuice":2886,"Ġbuilt":2887,"gest":2888,"Ġplaces":2889,"Ġheavy":2890,"Ġbes":2891,"hile":2892,"Ġsupposed":2893,"attle":2894,"Ġservice":2895,"ĠList":2896,"Ġgames":2897,"Ġlearn":2898,"eddy":2899,"Ġang":2900,"iod":2901,"Ġiss":2902,"Ġusing":2903,"Ġteacher":2904,"ology":2905,"bert":2906,"Ġdoubt":2907,"ege":2908,"Ġtreat":2909,"Ġburn":2910,"Ġcomplete":2911,"tered":2912,"Ġrad":2913,"Ġcommune":2914,"Ġsilence":2915,"Ġdam":2916,"Ġtrust":2917,"Ġfollowed":2918,"orence":2919,"ĠJoseph":2920,"Ġswim":2921,"APTER":2922,"ĠRichard":2923,"Ġfavorite":2924,"king":2925,"Ġstri":2926,"Ġ13":2927,"ti":2928,"ushed":2929,"olute":2930,"Ġsomewhere":2931,"ĠGeorge":2932,"note":2933,"Ġsmil":2934,"Ġthird":2935,"IC":2936,"sc":2937,"ĠEurope":2938,"ishing":2939,"Ġlegs":2940,"Ġreached":2941,"Ġbas":2942,"Ġcop":2943,"itted":2944,"Ġopened":2945,"ĠCHAPTER":2946,"oul":2947,"Ġfail":2948,"ĠFlorence":2949,"Ġpolitician":2950,"Ġsilly":2951,"Ġpardon":2952,"Ġtape":2953,"eally":2954,"Ġcertainly":2955,"Ġval":2956,"Ġgrow":2957,"Ġstopped":2958,"Ġsnow":2959,"Ġtur":2960,"Ġstore":2961,"ille":2962,"Ġappear":2963,"Ġanimal":2964,"Ġbreakfast":2965,"Ġclub":2966,"ĠPresident":2967,"Ġquar":2968,"ĠQu":2969,"iny":2970,"ips":2971,"Ġbelong":2972,"Ġ2022":2973,"Ġpack":2974,"Ġled":2975,"Ġindeed":2976,"ging":2977,"Ġshout":2978,"Ġlunch":2979,"Ġmam":2980,"ache":2981,"ills":2982,"Ġletters":2983,"Ġblow":2984,"Ġgeneral":2985,"Ġprofess":2986,"whis":2987,"ĠSu":2988,"Ġconsider":2989,"Ġbought":2990,"ĠSorry":2991,"Ġstreet":2992,"Ġcomfort":2993,"Ġresult":2994,"Ġmatch":2995,"Ġcrayon":2996,"Ġmajor":2997,"Ġlevel":2998,"Ġleaving":2999,"Ġsingle":3000,"Foot":3001,"Ġinform":3002,"IT":3003,"Ġneck":3004,"Ġsecret":3005,"Ġpresident":3006,"ĠTwo":3007,"Ġlocal":3008,"ĠLike":3009,"col":3010,"Ġaccount":3011,"Ġworks":3012,"ĠWilliam":3013,"Ġreceived":3014,"aves":3015,"Ġstrange":3016,"Ġwatches":3017,"Ġce":3018,"eder":3019,"Ġweeks":3020,"Ġcamera":3021,"isc":3022,"Ġholds":3023,"onel":3024,"Ġalthough":3025,"mpions":3026,"Ġdifficult":3027,"de":3028,"Ġdep":3029,"Ġeveryone":3030,"Ġremark":3031,"bs":3032,"itz":3033,"Ġcre":3034,"Ġperiod":3035,"ternational":3036,"Ġadm":3037,"Footnote":3038,"Ġpark":3039,"Ġsol":3040,"ĠJwww":3041,"Ġsense":3042,"Ġwarm":3043,"ĠSec":3044,"phan":3045,"Ġkick":3046,"Ġ$":3047,"Ġdecl":3048,"Ġexample":3049,"Ġmaster":3050,"Ġreach":3051,"Ġmention":3052,"ĠPeter":3053,"Ġbottom":3054,"Ġcareer":3055,"Ġut":3056,"Ġdry":3057,"ĠEll":3058,"gu":3059,"aps":3060,"ya":3061,"Ġbull":3062,"ĠâĢĻ":3063,"Ġcrying":3064,"go":3065,"Ġapart":3066,"Ġlift":3067,"Ġaccept":3068,"omin":3069,"ĠMal":3070,"Ġrub":3071,"Ġdefe":3072,"AY":3073,"Why":3074,"iday":3075,"Ġfifty":3076,"ĠJames":3077,"Ġleaves":3078,"Ġhoney":3079,"ĠEven":3080,"bl":3081,"Ġbrown":3082,"Ġbang":3083,"Ġemp":3084,"Ġmoving":3085,"Ġfinger":3086,"Ġmunicipality":3087,"bers":3088,"ĠRoy":3089,"Ġcompan":3090,"Ġexpress":3091,"work":3092,"Ġorange":3093,"Ġhuman":3094,"aff":3095,"Ġcand":3096,"ĠMad":3097,"ĠMark":3098,"ĠLuc":3099,"Ġ30":3100,"rie":3101,"JW":3102,"Ġsad":3103,"Ġlim":3104,"Ġwash":3105,"Ġcake":3106,"NA":3107,"cket":3108,"ET":3109,"bing":3110,"Ġbright":3111,"Ġcrazy":3112,"Ġsuddenly":3113,"oman":3114,"Ġdescri":3115,"Ġbread":3116,"Ġappeared":3117,"ancy":3118,"ĠDor":3119,"ĠReally":3120,"Ġanybody":3121,"nel":3122,"iforn":3123,"Ġhungry":3124,"Ġ]":3125,"ization":3126,"Ġhospital":3127,"ĠUncle":3128,"Ġincluding":3129,"Ġlab":3130,"Ġvide":3131,"Ġhistory":3132,"chan":3133,"Ġhig":3134,"what":3135,"acing":3136,"Ġalb":3137,"pecially":3138,"Ġelect":3139,"Ġwatching":3140,"Ġspoke":3141,"Ġglass":3142,"ĠSam":3143,"ĠChristmas":3144,"ida":3145,"Ġdev":3146,"Ġcarried":3147,"UNK":3148,"rit":3149,"resh":3150,"ex":3151,"fl":3152,"Ġauthor":3153,"Ġengine":3154,"Ġsummer":3155,"ĠCent":3156,"Ġhasn":3157,"Ġprison":3158,"nect":3159,"ĠCaliforn":3160,"There":3161,"ĠMon":3162,"....":3163,"Ġallowed":3164,"Ġcompet":3165,"Ġdesign":3166,"Ġbusy":3167,"Ġfurther":3168,"how":3169,"Ġloc":3170,"Ġtruth":3171,"ording":3172,"ĠTHAT":3173,"roy":3174,"Ġanymore":3175,"ĠWait":3176,"Ġimag":3177,"Ġcapital":3178,"ĠINV":3179,"_,":3180,"ensus":3181,"Ġcab":3182,"Ġnorm":3183,"ĠRuss":3184,"Ġsmell":3185,"Ġclever":3186,"Ġtast":3187,"ĠItal":3188,"ĠAmerica":3189,"ĠAmy":3190,"Ġlaughs":3191,"Ġincre":3192,"Ġbased":3193,"ĠSer":3194,"Ġvol":3195,"Ġtype":3196,"ĠCalifornia":3197,"like":3198,"orts":3199,"Ġuhoh":3200,"Ġbank":3201,"ĠCo":3202,"ien":3203,"Ġslight":3204,"Th":3205,"Ġnecess":3206,"Ġbud":3207,"ĠTell":3208,"asket":3209,"Ġgen":3210,"ĠMart":3211,"Ġself":3212,"Ġhorses":3213,"Ġyep":3214,"Ġspir":3215,"Ġthanks":3216,",'":3217,"Ġgall":3218,"Ġbabies":3219,"So":3220,"Ġneighb":3221,"ĠHowever":3222,"Ġwand":3223,"Ġoo":3224,"Ġhealth":3225,"ourn":3226,"Ġgarden":3227,"Ġsail":3228,"vol":3229,"Ġwriting":3230,"\")":3231,"Ġgar":3232,"ĠMary":3233,"chn":3234,"Ġbreath":3235,"Ġexclaimed":3236,"off":3237,"Ġsouth":3238,"Ġaccident":3239,"Ġadded":3240,"Ġtrees":3241,"ĠAustral":3242,"Ġattention":3243,"Ġgas":3244,"Ġitself":3245,"ales":3246,"Ġinvol":3247,"Ġdance":3248,"ilar":3249,"Ġ25":3250,"Ġnames":3251,"ĠHall":3252,"Ġlock":3253,"Ġcorner":3254,"vin":3255,"rel":3256,"ission":3257,"Ġwet":3258,"uty":3259,"Ġsell":3260,"Ġwalking":3261,"ĠAlexander":3262,"pes":3263,"ris":3264,"Ġver":3265,"ĠTake":3266,"ĠPart":3267,"Ġshouldn":3268,"nes":3269,"Ġpink":3270,"Ġ192":3271,"ĠStop":3272,"pend":3273,"Ġdistance":3274,"Ġtail":3275,"aper":3276,"Ġcompl":3277,"Ġparents":3278,"iced":3279,"Ġvict":3280,"Ġbeginning":3281,"Ġpuzz":3282,"Ġplayer":3283,"Ġholding":3284,"mo":3285,"Ġpause":3286,"ĠBRO":3287,"Ġliked":3288,"Ġhall":3289,"unny":3290,"ribut":3291,"cious":3292,"astic":3293,"ĠJes":3294,"Ġdropped":3295,"Ġ?":3296,"Ġfeed":3297,"Ġcheese":3298,"Ġcapt":3299,"Ġblocks":3300,"Ġsubject":3301,"Ġcollect":3302,"ĠSomet":3303,"ĠLo":3304,"Ġspace":3305,"Ġcontinued":3306,"Ġcream":3307,"Ġtrack":3308,"Ġshowed":3309,"ipe":3310,"lt":3311,"Ġattempt":3312,"Ġeduc":3313,"Ġhole":3314,"ĠLou":3315,"lect":3316,"ston":3317,"ĠON":3318,"Ġchicken":3319,"ELL":3320,"Ġnatur":3321,"Ġhide":3322,"ĠHouse":3323,"Ġquestions":3324,"Ġfut":3325,"Ġrespect":3326,"por":3327,"Ġnone":3328,"Ġbeat":3329,"Ġsex":3330,"elve":3331,"Ġloved":3332,"UT":3333,"iol":3334,"Ġ,":3335,"Ġ21":3336,"Ġsituation":3337,"IR":3338,"ply":3339,"Ġdanc":3340,"Ġtor":3341,"ĠHist":3342,"board":3343,"ases":3344,"ĠRiver":3345,"ĠMer":3346,"Ġrepresent":3347,"Ġfucking":3348,"ume":3349,"Ġ(\"":3350,"af":3351,"ades":3352,"Ġchurch":3353,"Ġchief":3354,"How":3355,"itive":3356,"Ġhous":3357,"ĠBro":3358,"ference":3359,"Ġannoun":3360,"viously":3361,"Ġearth":3362,"Ġcontrol":3363,"St":3364,"ec":3365,"Ã³":3366,"Ġdelight":3367,"atch":3368,"ĠFather":3369,"cries":3370,"ument":3371,"Ġprin":3372,"Ġslowly":3373,"Ġweren":3374,"Ġloud":3375,"ho":3376,"Ġhast":3377,"aug":3378,"ength":3379,"CK":3380,"wood":3381,"Ġdrop":3382,"Ġbottle":3383,"sey":3384,"Ġlose":3385,"iger":3386,"Ġcommand":3387,"ĠCharlie":3388,"ires":3389,"Ġlaughing":3390,"Ġteddy":3391,"cell":3392,"Ġteeth":3393,"Ġflowers":3394,"10":3395,"Ġmach":3396,"Ġseeing":3397,"Ġport":3398,"Ġrid":3399,"Ġrole":3400,"Ġinteresting":3401,"Ġrul":3402,"illa":3403,"Ġcharge":3404,"Ġfingers":3405,".--":3406,"iant":3407,"ky":3408,"Ġma":3409,"ĠAct":3410,"Ġproblems":3411,"Ġspl":3412,"ĠFred":3413,"cuse":3414,"aining":3415,"Ġspot":3416,"Don":3417,"Ġ24":3418,"aker":3419,"Ġcrow":3420,"Ġeff":3421,"ĠOk":3422,"Ġdollars":3423,"olutely":3424,"hood":3425,"Ġye":3426,"Ġmum":3427,"Ġnor":3428,"Ġreading":3429,"Ġforgot":3430,"Ġfuture":3431,"omer":3432,"Ġshare":3433,"Ġpaid":3434,"Ġanx":3435,"Ġactiv":3436,"Ġcircle":3437,"Ġforce":3438,"ĠRob":3439,"Ġvideo":3440,"iot":3441,"Ġbene":3442,"isted":3443,"Ġstarts":3444,"Ġentire":3445,"iers":3446,"ĠLord":3447,"Ġpriv":3448,"Ġeggs":3449,"lymp":3450,"They":3451,"Ġregard":3452,"mm":3453,"inite":3454,"...?":3455,"Ġcomb":3456,"Ġcars":3457,"clock":3458,"Ġhate":3459,"ĠDada":3460,"Ġjud":3461,"Ġshit":3462,"Ġsinging":3463,"Ġinformation":3464,"house":3465,"omes":3466,"ĠEn":3467,"west":3468,"yond":3469,"ĠCup":3470,"ĠIts":3471,"cer":3472,"Ġwide":3473,"riage":3474,"Ġmovies":3475,"18":3476,"Ġgives":3477,"ĠTex":3478,"play":3479,"gon":3480,"Ġpal":3481,"Ġhost":3482,"Ġnobody":3483,"ĠPre":3484,"Ġneeded":3485,"ĠMus":3486,"cture":3487,"Ġolder":3488,"ĠIsland":3489,"Ġwalked":3490,"Ġwonderful":3491,"now":3492,"Ġlying":3493,"Ġserious":3494,"Ġtall":3495,"Ġbridge":3496,"Ġ2010":3497,"Ġshows":3498,"Ġ&":3499,"ĠRem":3500,"Ġaut":3501,"atives":3502,"ĠSund":3503,"rene":3504,"Ġextra":3505,"Ġwel":3506,"Ġgoin":3507,"Ġ23":3508,"Ġuncle":3509,"Ġdirection":3510,"rang":3511,"ination":3512,"Ġsmile":3513,"Ġscar":3514,"str":3515,"aret":3516,"hold":3517,"Ġeast":3518,"Ġconcern":3519,"ĠBE":3520,"ĠGl":3521,"ĠSar":3522,"Ġmem":3523,"ĠOlymp":3524,"pered":3525,"Ġespecially":3526,"Ġcard":3527,"ĠAir":3528,"Ġrab":3529,"Ġsepar":3530,"Ġterm":3531,"Ġpictures":3532,"Ġvers":3533,"ads":3534,"ounded":3535,"ploy":3536,"Ġproject":3537,"Ġcreated":3538,"icro":3539,"Ġplays":3540,"Ġhandle":3541,"ggie":3542,"Ġelephan":3543,"Ġpicked":3544,"ĠIndia":3545,"ĠGive":3546,"raft":3547,"ĠMex":3548,"ĠPeople":3549,"Ġtowel":3550,"Ġlength":3551,"Ġhun":3552,"Ġtwelve":3553,"ption":3554,"Ġoccas":3555,"lu":3556,"Ġmass":3557,"isy":3558,"ĠST":3559,"ĠState":3560,"Ġalbum":3561,".âĢĻ":3562,"het":3563,"ĠSchool":3564,"ĠFAT":3565,"Ġspell":3566,"----------------":3567,"ĠHelen":3568,"ran":3569,"Ġep":3570,"ala":3571,"Ġdrawing":3572,"Ġpurple":3573,"Ġconvers":3574,"gs":3575,"val":3576,"inos":3577,"medi":3578,"Ġsimilar":3579,"ĠPeggy":3580,"ĠRober":3581,"Ġgrass":3582,"Ġbigger":3583,"ography":3584,"uel":3585,"Ġears":3586,"Ġcomput":3587,"ius":3588,"ites":3589,"ĠMother":3590,"ĠBill":3591,"ĠWould":3592,"ils":3593,"ĠNothing":3594,"ico":3595,"Ġarmy":3596,"ĠUS":3597,"Ġpers":3598,"ĠListen":3599,"Ġcrack":3600,"Ġpopular":3601,"Ġet":3602,"Ġdue":3603,"rian":3604,"ĠAnne":3605,"ees":3606,"Ġcensus":3607,"Ġhy":3608,"Ġnaught":3609,"Ġpicks":3610,"Ġterrible":3611,"face":3612,"Ġwag":3613,"soci":3614,"Ġspecies":3615,"ville":3616,"ashed":3617,"ĠMat":3618,"Ġrepe":3619,"ĠNor":3620,"cks":3621,"Ġdirty":3622,"ĠHen":3623,"Ġearl":3624,"Ġparticular":3625,"uction":3626,"Ġamount":3627,"ĠHarry":3628,"Ġexcuse":3629,"ĠQue":3630,"Ġfir":3631,"ession":3632,"Ġtalked":3633,"Ġaccom":3634,"itary":3635,"Ġmix":3636,"ĠAM":3637,"Ġinvest":3638,"cher":3639,"itions":3640,"ili":3641,"Ġpocket":3642,"ĠGerva":3643,"Ġcentury":3644,"Ġdiscuss":3645,"ĠJapanese":3646,"IGH":3647,"Ġbasket":3648,"Ġparts":3649,"Ġturning":3650,"17":3651,"lin":3652,"Ġdate":3653,"Ġviol":3654,"Ġactor":3655,"Ġ2011":3656,"Ġsurprise":3657,"My":3658,"Ġstars":3659,"Now":3660,"Ġspent":3661,"Ġprep":3662,"ĠLeague":3663,"dom":3664,"uge":3665,"Ġboo":3666,"Ġpounds":3667,"Ġ2012":3668,"Ġinterrupt":3669,"ĠTexas":3670,"za":3671,"Ġsle":3672,"Ġblank":3673,"ĠAfr":3674,"ĠGervaise":3675,"asc":3676,"If":3677,"Ġris":3678,"Ġspoon":3679,"inary":3680,"Ġclosed":3681,"Ġobs":3682,"ĠJesus":3683,"can":3684,"ipped":3685,"ppy":3686,"Ġbackground":3687,"Ġkey":3688,"Ġdifference":3689,"Ġsky":3690,"llust":3691,"Ġworse":3692,"Ġmanner":3693,"Ġasking":3694,"Ġsquare":3695,"erve":3696,"ĠPark":3697,"ĠJer":3698,"Ġcaused":3699,"pose":3700,"isf":3701,"Ġcouncil":3702,"ural":3703,"ival":3704,"Ġdirected":3705,"Ġpromise":3706,"ĠHistory":3707,"sn":3708,"antly":3709,"Ġalive":3710,"Ġbelow":3711,"ka":3712,"set":3713,"ĠColl":3714,"uckles":3715,"Ġcourt":3716,"Ġsettle":3717,"dd":3718,"aturday":3719,"Ġhol":3720,"amund":3721,"ĠRepubl":3722,"Ġfresh":3723,"ĠAc":3724,"elly":3725,"Ġden":3726,"ament":3727,"ique":3728,"yer":3729,"Ġhiding":3730,"ĠCor":3731,"ĠDist":3732,"ĠDem":3733,"Ġfinally":3734,"Ġtit":3735,"bye":3736,"aven":3737,"ugg":3738,"Ġlion":3739,"iles":3740,"ably":3741,"ously":3742,"ĠRosamund":3743,"conom":3744,"ato":3745,"ĠSure":3746,"ĠJones":3747,"Ġhurry":3748,"Ġ2016":3749,"Ġrespons":3750,"Ġupstairs":3751,"Ġcrowd":3752,"point":3753,"Ġfle":3754,"Ġstren":3755,"Ġasleep":3756,"roat":3757,"Ġconnect":3758,"Then":3759,"Ġbeyond":3760,"ansas":3761,"Ġrefer":3762,"Ġraised":3763,"Ġninet":3764,"Ġhelped":3765,"eneral":3766,"ĠFirst":3767,"Ġpolicy":3768,"In":3769,"bes":3770,"Ġstage":3771,"Ġjoined":3772,"OO":3773,"vious":3774,"ruction":3775,"Ġapple":3776,"Ġoppos":3777,"She":3778,"rey":3779,"Ġfool":3780,"ĠIS":3781,"ushing":3782,"ighs":3783,"field":3784,"mit":3785,"Ġbrief":3786,"Ġaff":3787,"ĠSunday":3788,"CE":3789,"Ġmanage":3790,"Ġcoat":3791,"upid":3792,"Ġdeter":3793,"ĠWind":3794,"ĠLa":3795,"ĠFOR":3796,"ĠSan":3797,"ĠMany":3798,"ems":3799,"Ġnaughty":3800,"._":3801,"Do":3802,"wise":3803,"zen":3804,"arr":3805,"ĠLady":3806,"ĠAnge":3807,"ĠTur":3808,"Ġ100":3809,"Ġspring":3810,"hire":3811,"Ġimmedi":3812,"Ġcovered":3813,"ĠDuring":3814,"pping":3815,"ĠSteve":3816,"ij":3817,"yle":3818,"lla":3819,"asp":3820,"outhern":3821,"ĠOur":3822,"azing":3823,"Ġphot":3824,"Ġcommunity":3825,"Ġwha":3826,"Ġmagnet":3827,"ann":3828,"ĠSaturday":3829,"Ġwhoops":3830,"ĠLittle":3831,"ĠRed":3832,"Ġtechn":3833,"Ġdestroy":3834,"Ġ..":3835,"oph":3836,"olf":3837,"ĠMarie":3838,"Ġpencil":3839,"inct":3840,"ĠTheir":3841,"ĠJul":3842,"Ġpossib":3843,"nded":3844,"Ġfre":3845,"ĠBur":3846,"Ġcrit":3847,"pers":3848,"Ġthreat":3849,"Ġlikely":3850,"Ġprocess":3851,"Ġintrod":3852,"laughing":3853,"ĠDoes":3854,"Ġinclude":3855,"aded":3856,"Ġmeat":3857,"Ġagree":3858,"Ġarrest":3859,"Ġgate":3860,"ivil":3861,"Ġspeed":3862,"brother":3863,"Ġgrew":3864,"ĠBer":3865,"ĠWhich":3866,"Ġnumbers":3867,"ett":3868,"ĠSch":3869,"ĠGovern":3870,"Ġscared":3871,"Ġstreng":3872,"worth":3873,"Ġrese":3874,"ĠChristian":3875,"orthern":3876,":=":3877,"ittee":3878,"Ġdriving":3879,"ï¿½ï¿½ï¿½ï¿½":3880,"kn":3881,"Ġwest":3882,"oughs":3883,"ki":3884,"kin":3885,"Ġdrew":3886,"Ġrace":3887,"ĠWE":3888,"Ġ22":3889,"ago":3890,"gen":3891,"oly":3892,"vocal":3893,"ĠDar":3894,"Ġsheep":3895,"Ġfright":3896,"Ġthinks":3897,"look":3898,"oom":3899,"Ġfamous":3900,"ids":3901,"ĠMost":3902,"oved":3903,"ĠBefore":3904,"ĠGermany":3905,"Ġpleasure":3906,"VER":3907,"ĠEast":3908,"Ġsandw":3909,"Ġwake":3910,"Ġfem":3911,"lden":3912,"ĠMac":3913,"iment":3914,"Ġneedta":3915,"Ġspeaking":3916,"ĠIndians":3917,"light":3918,"Ġcru":3919,"ĠHE":3920,"sy":3921,"ingly":3922,"ĠOther":3923,"othy":3924,"ashion":3925,"Ġprovince":3926,"ĠIrene":3927,"Ġlines":3928,"Ġnur":3929,"alt":3930,"Ġbirds":3931,"Ġtotal":3932,"Ġsens":3933,"itor":3934,"Ġrap":3935,"Ġperform":3936,"hal":3937,"chie":3938,"ĠJenn":3939,"Ġairport":3940,"Ġmissing":3941,"Ġnatural":3942,"Ġhero":3943,"Ġweap":3944,"ortun":3945,"Ġelection":3946,"Ġsleeping":3947,"Ġcaptain":3948,"Ġwa":3949,"Ġbattle":3950,"Ġur":3951,"ĠGra":3952,"Ġsatisf":3953,"Ġrough":3954,"Ġplane":3955,"Ġcalling":3956,"Ġswing":3957,"Ġbroad":3958,"ĠExcuse":3959,"she":3960,"Ġtap":3961,"ĠChair":3962,"Ġinn":3963,"ivid":3964,"Ġgrad":3965,"Ġtries":3966,"Ġvarious":3967,"hic":3968,"rect":3969,"FRI":3970,"line":3971,"under":3972,"Ġident":3973,"Ġoops":3974,"Ġthrew":3975,"ĠSince":3976,"cience":3977,"Ġ2008":3978,"Ġsimply":3979,"HH":3980,"cul":3981,"reme":3982,"erved":3983,"ademy":3984,"ĠMhm":3985,"Ġund":3986,"ĠHigh":3987,"Ġattend":3988,"Ġ27":3989,"Ġskin":3990,"inosaur":3991,"Ġsize":3992,"Ġbeha":3993,"Ġbell":3994,"Ġways":3995,"Ġsett":3996,"sp":3997,"uses":3998,"Ġanywhere":3999,"Ġarrived":4000,"ALL":4001,"ĠBel":4002,"Ġ26":4003,"Ġemb":4004,"ĠMore":4005,"antic":4006,"ables":4007,"ests":4008,"Ġterms":4009,"Ġsteps":4010,"initely":4011,"Ġfol":4012,"Ġstories":4013,"ĠGot":4014,"ĠChampions":4015,"Ġjoin":4016,"ĠRobert":4017,"Ġstupid":4018,"ongress":4019,"Ġgoodness":4020,"Ġcust":4021,"Ġneg":4022,"Ġofficer":4023,"ĠLoire":4024,"Ġwelcome":4025,"Ġbuck":4026,"Ġ28":4027,"berry":4028,"ocol":4029,"Ġboun":4030,"asons":4031,"aching":4032,"Ġforth":4033,"Ġformed":4034,"ĠBu":4035,"Ġserved":4036,"ĠParty":4037,"LA":4038,"atic":4039,"Ġstream":4040,"Ġended":4041,"asure":4042,"Ġforty":4043,"Ġwheel":4044,"ĠRE":4045,"Ġflat":4046,"Ġlargest":4047,"50":4048,"Ġspread":4049,"Ġpeace":4050,"Ġmostly":4051,"Ġoriginal":4052,"Ġangry":4053,"ially":4054,"Ġtou":4055,"ĠLu":4056,"ĠHenry":4057,"ini":4058,"Ġtower":4059,"Ġstarting":4060,"ĠAlbert":4061,"MU":4062,"kiss":4063,"itude":4064,"ences":4065,"Ġrich":4066,"Ġnotice":4067,"ularly":4068,"Ġplaced":4069,"Ġguard":4070,"Ġhappening":4071,"ĠPlay":4072,"rer":4073,"Ġdressed":4074,"Ġlaid":4075,"stit":4076,"epend":4077,"Ġentered":4078,"Ġmissed":4079,"Ġstudy":4080,"Ġsurprised":4081,"Ġelephant":4082,"Ġbound":4083,"Ġonto":4084,"Ġrose":4085,"ĠBra":4086,"ĠJo":4087,"Ġsuff":4088,"Ġrelations":4089,"Ġtax":4090,"erland":4091,"Ġdinosaur":4092,"Ġconside":4093,"Ġ2017":4094,"Ġhardly":4095,"Ġninety":4096,"ĠBradford":4097,"Ġconsidered":4098,"Ġbite":4099,"ĠBab":4100,"Ġnineteen":4101,"AK":4102,"Ġmarket":4103,"burg":4104,"cast":4105,"Ġpet":4106,"ĠCos":4107,"ached":4108,"Ġpray":4109,"ĠCarl":4110,"anch":4111,"Ġsevent":4112,"Ġcollege":4113,"Ġloves":4114,"KAT":4115,"ita":4116,"Ġshape":4117,"order":4118,"ĠLara":4119,"Ġplate":4120,"ĠStreet":4121,"Ġsharp":4122,"Ġmachine":4123,"icious":4124,"ĠMatt":4125,"ĠCould":4126,"ĠRam":4127,"Ġenv":4128,"ails":4129,"roll":4130,"ĠInternational":4131,"anced":4132,"Ġsupper":4133,"ĠOnly":4134,"ĠCouncil":4135,"Ġunless":4136,"Ġsimple":4137,"bre":4138,"ĠGeneral":4139,"Ġfinal":4140,"ENT":4141,"Ġinvolved":4142,"Ġtone":4143,"oring":4144,"Ġlaug":4145,"ĠTony":4146,"Ġjoy":4147,"Ġtrad":4148,"Ġclown":4149,"Ġfilm":4150,"Ġbomb":4151,"Ġyouth":4152,"Ġ29":4153,"JO":4154,"rain":4155,"Ġtight":4156,"edy":4157,"ĠBet":4158,"Ġtrick":4159,"Ġemploy":4160,"Ġcult":4161,"Ġchoo":4162,"Ġladies":4163,"Ġearlier":4164,"ST":4165,"craft":4166,"lor":4167,"ĠAlf":4168,"ĠAbout":4169,"Ġradio":4170,"Ġcabin":4171,"Ġlaughed":4172,"anda":4173,"Ġfighting":4174,"ergy":4175,"Ġnet":4176,"ĠSy":4177,"Ġ()":4178,"they":4179,"ening":4180,"oma":4181,"vey":4182,"ĠSant":4183,"Ġaged":4184,"Ġaction":4185,"Ġbunny":4186,"Ġlap":4187,"lected":4188,"ĠChic":4189,"Ġ50":4190,"ION":4191,"ĠII":4192,"orough":4193,"ĠME":4194,"ours":4195,"Ġtwice":4196,"Ġcoach":4197,"Ġcomputer":4198,"Ġmummy":4199,"ively":4200,"Ġpleased":4201,"199":4202,"Ġcompletely":4203,"11":4204,"Ġham":4205,"Ġknights":4206,"ension":4207,"Ġoccur":4208,"ĠAMY":4209,"ĠChan":4210,"outs":4211,"Ġuhuh":4212,"itzerland":4213,"LY":4214,"Ġ)":4215,"ĠPort":4216,"Ġ186":4217,"Ġdangerous":4218,"ĠDistrict":4219,"ĠBo":4220,"ousin":4221,"izes":4222,"Ġfallen":4223,"ĠComp":4224,"Ġconversation":4225,"Ġdru":4226,"Ġreact":4227,"Ġtherefore":4228,"OME":4229,"Ġempty":4230,"sil":4231,"Ġareas":4232,"Ġbless":4233,"Ġfalling":4234,"Ġannounced":4235,"father":4236,"ĠVery":4237,"Ġphys":4238,"ĠSwitzerland":4239,"hin":4240,"Ġsearch":4241,"Ġhigher":4242,"ĠLouis":4243,"ba":4244,"Ġpan":4245,"ĠBig":4246,"Ġ2013":4247,"Ġ2006":4248,"ĠBlack":4249,"Ġhouses":4250,"do":4251,"Ġpir":4252,"Ġweather":4253,"oken":4254,"Ġeasily":4255,"Ġpuzzle":4256,"Ġthroat":4257,"usion":4258,"ĠLaw":4259,"ĠChris":4260,"'?":4261,"anish":4262,"Ġshirt":4263,"Ġactress":4264,"Ġ2007":4265,"of":4266,"Ġta":4267,"hered":4268,"Ġcell":4269,"Ġduty":4270,"Ġdere":4271,"iance":4272,"Ġpolitical":4273,"Ġstrugg":4274,"Ġshoe":4275,"rib":4276,"Ġclock":4277,"Ġrob":4278,"Ġmoves":4279,"Ġeleven":4280,"ointed":4281,"Ġmistake":4282,"ĠSarah":4283,"Illust":4284,"ĠThree":4285,"ples":4286,"Ġscene":4287,"Ġmedic":4288,"Ġfifteen":4289,"Ġescape":4290,"Ġwit":4291,"ether":4292,"Ġsocial":4293,"Ġgrou":4294,"Ġchap":4295,"Ġscream":4296,"Ġhonest":4297,"Ġcrew":4298,"Ġpath":4299,"ĠSl":4300,"ĠKitty":4301,"Ġopportun":4302,"Ġwinter":4303,"Ġfilled":4304,"Ġquarter":4305,"Ġdeclared":4306,"ĠBobby":4307,"Ġlucky":4308,"gress":4309,"lebr":4310,"ĠAward":4311,"Ġnote":4312,"ĠUnion":4313,"Ġexplain":4314,"Ġflying":4315,"Ġide":4316,"arrow":4317,"ĠFort":4318,"atherine":4319,"gged":4320,"Ġcolors":4321,"ĠCarol":4322,"30":4323,"CAR":4324,"IF":4325,"Ġble":4326,"Ġmoon":4327,"Ġallow":4328,"don":4329,"pa":4330,"Ġthick":4331,"Ġrate":4332,"ĠDoctor":4333,"Ġexcited":4334,"Ġlearned":4335,"Ġeconom":4336,"ĠLem":4337,"ockey":4338,"ĠBeck":4339,"Ġtemper":4340,"Ġnecessary":4341,"inal":4342,"Ġmir":4343,"arm":4344,"ota":4345,"Ġroof":4346,"ĠHy":4347,"ĠRo":4348,"ungle":4349,"Ġinflu":4350,"IM":4351,"gl":4352,"Ġgir":4353,"Ġrow":4354,"ocrat":4355,"Ġinj":4356,"ĠBye":4357,"Ġsuit":4358,"ensive":4359,"Ġfellows":4360,"ĠPerhaps":4361,"Ã¼":4362,"Ġnature":4363,"Ġate":4364,"Ġ2014":4365,"Ġ2009":4366,"Ġpersonal":4367,"Ġmentioned":4368,"Illustration":4369,".,":4370,"din":4371,"ja":4372,"ify":4373,"ĠDorothy":4374,"CT":4375,"OP":4376,"anny":4377,"Ġ--":4378,"Ġappl":4379,"Ġwalks":4380,"Ġpulled":4381,"Ġstrength":4382,"All":4383,"van":4384,"Ġlem":4385,"Ġnon":4386,"Ġplant":4387,"elest":4388,"Ġsugar":4389,"Ġchem":4390,"Ġaddress":4391,"Ġpublished":4392,"Ġestab":4393,"Ġtong":4394,"Ġtiny":4395,"Ġap":4396,"Ġnea":4397,"ĠNat":4398,"otten":4399,"Ġepis":4400,"Ġpun":4401,"aries":4402,"eman":4403,"Ġcloud":4404,"Ġimm":4405,"ĠDonald":4406,"Ġsinger":4407,"ĠTV":4408,"Ġdoggie":4409,"Ġlips":4410,"Ġmilitary":4411,"Ġmamma":4412,"ux":4413,"Ġbill":4414,"Ġeager":4415,"ĠCreek":4416,"ĠAnn":4417,"Ġrelig":4418,"Ġawful":4419,"Ġpractice":4420,"Ġrabbit":4421,"SC":4422,"ĠMor":4423,"Ġkitty":4424,"igs":4425,"Ġenemy":4426,"ĠWI":4427,"Ġoffer":4428,"Ġenc":4429,"Ġexpected":4430,"Ġbeside":4431,"Ġspirit":4432,"Ġiron":4433,"ĠTod":4434,"ĠHa":4435,"ĠNever":4436,"Ġpercent":4437,"Ġsurface":4438,"Ġdevelopment":4439,"bell":4440,"ĠMont":4441,"ĠDO":4442,"iel":4443,"Ġdeg":4444,"Ġdesk":4445,"Ġregular":4446,"Ġdogs":4447,"Ġswimming":4448,"Ġimmediately":4449,"12":4450,"Ġsna":4451,"ĠMinister":4452,"Ġdancing":4453,"imit":4454,"Ġwhoa":4455,"Ġvan":4456,"Ġproud":4457,"Ġwatched":4458,"Ġstands":4459,"Ġoffe":4460,"Ġhadn":4461,"Ġdeb":4462,"ucker":4463,"Ġdisp":4464,"Ġfaith":4465,"reg":4466,"urity":4467,"Ġgrab":4468,"bered":4469,"Ġchocol":4470,"Ġcheer":4471,"Ġearn":4472,"Ġtiger":4473,"ena":4474,"ators":4475,"Ġkeeping":4476,"Ġsoul":4477,"Ġstorm":4478,"Ġbrush":4479,"Ġadvent":4480,"Ġcalm":4481,"ĠAustralia":4482,"Ġgrave":4483,"ĠHam":4484,"Ġbutton":4485,"ĠCharles":4486,"ĠMel":4487,"Ġshore":4488,"Ġshoulder":4489,"ciety":4490,"Ġbother":4491,"Ġinqu":4492,"oted":4493,"eless":4494,"Ġrights":4495,"Ġusual":4496,"Ġappre":4497,"Ġacqu":4498,"Ġlights":4499,"minist":4500,"ĠMartin":4501,"Ġoccasion":4502,"Ġcro":4503,"arily":4504,"lear":4505,"ĠOld":4506,"ola":4507,"Ġplain":4508,"Ġwoods":4509,"oid":4510,"idden":4511,"Ġstone":4512,"iest":4513,"oos":4514,"Ġnoticed":4515,"anche":4516,"Ġpurpose":4517,"colm":4518,"ĠEllie":4519,"Ġsaved":4520,"obile":4521,"Ġbedroom":4522,"Ġpromised":4523,"Ġmessage":4524,"RUS":4525,"Ġaud":4526,"ĠWhile":4527,"actor":4528,"Ġtowns":4529,"Ġoccup":4530,"Ġfault":4531,"Ġgroups":4532,"hem":4533,"Ġmicro":4534,"Ġnap":4535,"ĠSum":4536,"eech":4537,"Ġimpro":4538,"known":4539,"200":4540,"IE":4541,"ns":4542,"utch":4543,"ĠSH":4544,"Ġdefinitely":4545,"Ġmotion":4546,"Ġabsolutely":4547,"range":4548,"heart":4549,"ĠMed":4550,"ĠBert":4551,"hips":4552,"ĠUm":4553,"Not":4554,"Ġloss":4555,"ĠAye":4556,"ĠMike":4557,"Ġgrown":4558,"Ġprim":4559,"Ġfigures":4560,"ĠChairman":4561,"icated":4562,"Ġsmoke":4563,"Ġindust":4564,"Ġprofessional":4565,"ĠMalcolm":4566,"ĠSen":4567,"cely":4568,"Ġourselves":4569,"Ġremem":4570,"Ġnormal":4571,"15":4572,"Ġmater":4573,"oming":4574,"ĠSim":4575,"ĠMot":4576,"ĠKore":4577,"Ġpeek":4578,"Ġsmart":4579,"Ġdirector":4580,"Ġstraw":4581,"ĠScott":4582,"eleste":4583,"Ġmud":4584,"Ġpool":4585,"Ġnurs":4586,"Ġdeterm":4587,"Ġyum":4588,"Ġagreed":4589,"Ġdownstairs":4590,"Ġcontinues":4591,"Ġwearing":4592,"Ġstates":4593,"iled":4594,"pper":4595,"Ġplenty":4596,"Ġproduced":4597,"Ġissue":4598,"Ġcities":4599,"Ġdig":4600,"Ġfashion":4601,"ĠRoman":4602,"Ġexist":4603,"Ġbegin":4604,"This":4605,"eg":4606,"Ġcart":4607,"ari":4608,"ĠWAS":4609,"Ġdepend":4610,"Ġheads":4611,"Ġstruck":4612,"Ġhotel":4613,"ĠGuy":4614,"Ġexperience":4615,"ĠKeep":4616,"DS":4617,"Ġrail":4618,"osh":4619,"oves":4620,"Ġremain":4621,"Ġindivid":4622,"Ġevidence":4623,"Ġgentleman":4624,"Ġmurder":4625,"Ġavail":4626,"Ġtaste":4627,"IGHT":4628,"ĠAcademy":4629,"omen":4630,"Ġhuge":4631,"Ġrevol":4632,"ĠGold":4633,"ucky":4634,"Ġenergy":4635,"Ġmeaning":4636,"Ġ2015":4637,"Ġcountries":4638,"Ġcarefully":4639,"Ġremarked":4640,"Ġutter":4641,"Is":4642,"],":4643,"iling":4644,"ĠFlor":4645,"Ġlistening":4646,"Ġguns":4647,"Celeste":4648,"Ġlid":4649,"Ġplans":4650,"Ġtells":4651,"ĠReg":4652,"orter":4653,"ĠSing":4654,"ĠSid":4655,"paper":4656,"rated":4657,"ĠTer":4658,"ooper":4659,"Ġjour":4660,"ĠGames":4661,"ourt":4662,"iction":4663,"Ġleader":4664,"cue":4665,"ĠLove":4666,"Ġchoice":4667,"Ġperfor":4668,"Ġattract":4669,"Ġpurs":4670,"Ġsongs":4671,"mie":4672,"Ġdoc":4673,"irgin":4674,"ĠOoh":4675,"ĠWhite":4676,"ledge":4677,"aign":4678,"Ġcards":4679,"Ġfeat":4680,"Ġcoast":4681,"ification":4682,"Ġmotor":4683,"Ġsoldiers":4684,"Ġchocolate":4685,"UD":4686,"rim":4687,"Ġtoast":4688,"ĠMic":4689,"ĠHal":4690,"Ġjungle":4691,"osta":4692,"Ġballs":4693,"ups":4694,"Ġcere":4695,"ĠRog":4696,"ossible":4697,"Ġclimb":4698,"Ġimagine":4699,"coughs":4700,"ruct":4701,"Ġdesp":4702,"ĠLucy":4703,"Right":4704,"ĠAcc":4705,"ĠMil":4706,"ĠBern":4707,"ĠWil":4708,"osing":4709,"Ġremained":4710,"Ġassist":4711,"Ġgenerally":4712,"Ġhistor":4713,"RR":4714,"Ġintend":4715,"ression":4716,"Ġpaint":4717,"Ġedge":4718,"Ġtongue":4719,"back":4720,"Ġfund":4721,"Ġthou":4722,"uten":4723,"ĠCass":4724,"ulf":4725,"Ġtrunk":4726,"Ġmodern":4727,"Ġeducation":4728,"eer":4729,"ĠMid":4730,"Ġtext":4731,"Ġtravel":4732,"ĠChild":4733,"Ġprivate":4734,"Ġweak":4735,"illiant":4736,"ĠVict":4737,"Ġdriver":4738,"Ġofficers":4739,"Ġcelebr":4740,"ram":4741,"Ġdread":4742,"Ġpill":4743,"Ġstret":4744,"Ġblind":4745,"Ġwestern":4746,"Ġsits":4747,"Ġclearly":4748,"LLL":4749,"Ġperfectly":4750,"SE":4751,"da":4752,"nding":4753,"itation":4754,"ishes":4755,"Ġpa":4756,"Ġlog":4757,"Ġwaste":4758,"ĠRy":4759,"Ġproceed":4760,"ords":4761,"Ġperm":4762,"Ġsnake":4763,"noise":4764,"Ġbrave":4765,"orks":4766,"ĠAlden":4767,"ĠSaint":4768,"ĠPil":4769,"Ġfixed":4770,"Ġtears":4771,"Ġbal":4772,"Ġemer":4773,"ima":4774,"Ġships":4775,"Ġprice":4776,"inese":4777,"Ġdiscovered":4778,"Ġproduc":4779,"ironment":4780,"Ġrule":4781,"IL":4782,"Ġstairs":4783,"Ġscrew":4784,"ĠMarg":4785,"Ġbrothers":4786,"Ġfirm":4787,"kins":4788,"Ġdare":4789,"otte":4790,"ĠMY":4791,"Ġvo":4792,"Ġmonster":4793,"Ġbelieved":4794,"Ġtrip":4795,"Ch":4796,"MB":4797,"Ġwoof":4798,"Ġant":4799,"ĠGab":4800,"Ġspoken":4801,"Ġyounger":4802,"Ġversion":4803,"!'":4804,"Ġhill":4805,"vere":4806,"ooh":4807,"ura":4808,"âĢĺ":4809,"Ġknife":4810,"Ġprint":4811,"Ġcontract":4812,"Ġ187":4813,"Ġseconds":4814,"Ġcraw":4815,"Ġopposite":4816,"rees":4817,"chuckles":4818,"ĠGO":4819,"Ġdun":4820,"aning":4821,"icy":4822,"ushes":4823,"Ġneither":4824,"Ġcircum":4825,"Ġnurse":4826,"vi":4827,"ĠAnt":4828,"urt":4829,"Ġcalls":4830,"Ġdemand":4831,"sych":4832,"JJ":4833,"iber":4834,"Ġsides":4835,"Ġfaces":4836,"Ġpin":4837,"asy":4838,"ĠTed":4839,"ĠHA":4840,"Ġsake":4841,"Ġruns":4842,"Ġsurv":4843,"ĠItalian":4844,"cellent":4845,"oons":4846,"Ġnomin":4847,"ĠPal":4848,"Ġworried":4849,"Ġteach":4850,"Ġkinda":4851,"ĠOnce":4852,"Ġhonor":4853,"Ġtun":4854,"Ġtaught":4855,"Ġwed":4856,"Ġheat":4857,"ĠNav":4858,"Ġshown":4859,"ilda":4860,"Ġairpl":4861,"oking":4862,"ĠEuropean":4863,"zes":4864,"Ġweight":4865,"ĠMond":4866,"Ġbrain":4867,"Ġarrow":4868,"Ġshad":4869,"Ġafterwards":4870,"Ġchoose":4871,"Ġenter":4872,"Ġproduct":4873,"Ġsandwich":4874,"Ġopportunity":4875,"ĠMinn":4876,"ĠRand":4877,"istic":4878,"Ġflower":4879,"Ġdecision":4880,"Ġmodel":4881,"ĠOrd":4882,"ĠGreen":4883,"ocks":4884,"ĠChurch":4885,"ĠWarren":4886,"Ġlawyer":4887,"ĠSmith":4888,"_.":4889,"ios":4890,"Ġtar":4891,"has":4892,"Ġdouble":4893,"Ġge":4894,"lend":4895,"istan":4896,"Ġproperly":4897,"Ġanxious":4898,"enny":4899,"using":4900,"ĠCall":4901,"Ġhelping":4902,"Ġfounded":4903,"ebye":4904,"Ġtrave":4905,"Ġmountain":4906,"Ġwan":4907,"Ġwrest":4908,"raw":4909,"Ġpleasant":4910,"Ġign":4911,"Ġho":4912,"ĠCat":4913,"ĠCatherine":4914,"Ġaddition":4915,"Ġgrandma":4916,"wr":4917,"ĠFriday":4918,"Ġsurr":4919,"Ġpants":4920,"Ġgra":4921,"ĠBat":4922,"ĠHold":4923,"ĠFoot":4924,"Ġcomment":4925,"Ġobviously":4926,"Ġbathroom":4927,"Ġnorthwest":4928,"ĠColonel":4929,"Ġtv":4930,"Ġox":4931,"ĠDep":4932,"Ġaccording":4933,"ĠQueen":4934,"Ġlower":4935,"ĠSay":4936,"ĠPet":4937,"aked":4938,"fection":4939,"ĠStone":4940,"Ġcentre":4941,"Ġincluded":4942,"Ġjourney":4943,"hest":4944,"nds":4945,"Ġchat":4946,"Ġreck":4947,"ĠBoy":4948,"ĠLaur":4949,"Ġspeech":4950,"Ġcontact":4951,"Ġmagaz":4952,"Ġforest":4953,"Ġharm":4954,"ero":4955,"Ġopening":4956,"ERE":4957,"ĠSpanish":4958,"Ġprepared":4959,"die":4960,"hod":4961,"rid":4962,"icate":4963,"ĠFin":4964,"Ġshake":4965,"Ġ2005":4966,"Ġeighty":4967,"Ġeffort":4968,"16":4969,"Ġmut":4970,"ĠAT":4971,"ĠSea":4972,"ĠDu":4973,"ĠLee":4974,"ĠRes":4975,"Ġvote":4976,"Ġgrowing":4977,"izing":4978,"Ġmarry":4979,"chard":4980,"arently":4981,"ares":4982,"Ġpound":4983,"ashing":4984,"ĠOver":4985,"Ġbrilliant":4986,"ĠStan":4987,"Ġunc":4988,"Ġservices":4989,"host":4990,"just":4991,"Ġrange":4992,"ĠRel":4993,"cip":4994,"Ġevident":4995,"ona":4996,"ĠJean":4997,"Ġbudget":4998,"UK":4999,"gn":5000,"Ġsoup":5001,"Ġgro":5002,"Ġforces":5003,"Ġshower":5004,"Ġfalls":5005,"Ġwalls":5006,"Ġstructure":5007,"mn":5008,"ners":5009,"sha":5010,"eds":5011,"ĠSand":5012,"ĠMur":5013,"angle":5014,"Ġfavour":5015,"ĠProf":5016,"Ġparticularly":5017,"ĠAgain":5018,"ĠWHAT":5019,"oured":5020,"ĠPays":5021,"ĠTHIS":5022,"ĠCanada":5023,"Ġfairly":5024,"ĠGeorg":5025,"ĠSecret":5026,"ĠLab":5027,"aboo":5028,"Ġquality":5029,"udd":5030,"Ġpapers":5031,"ĠGerald":5032,"Ġbringing":5033,"iggles":5034,"Ġcomfortable":5035,"Ġmedicine":5036,"Ġsis":5037,"Ġsour":5038,"Ġcivil":5039,"ĠDis":5040,"ĠDes":5041,"ĠJess":5042,"Ġexec":5043,"Ġimpossible":5044,"Ġcontinue":5045,"ocratic":5046,"Ġir":5047,"Ġoil":5048,"enne":5049,"ĠDay":5050,"Ġbyebye":5051,"thew":5052,"Ġindepend":5053,"Ġtelephone":5054,"Ġsusp":5055,"Fr":5056,"Ġfold":5057,"ĠKat":5058,"Ġschools":5059,"Ġeasier":5060,"Ġcorrect":5061,"Ġvictim":5062,"Ġconcerned":5063,",âĢĻ":5064,"Ġtie":5065,"Ġknees":5066,"pering":5067,"Ġcampaign":5068,"ĠJennie":5069,"ĠVictor":5070,"jo":5071,"Ãº":5072,"Ġcases":5073,"ication":5074,"Ġbeach":5075,"ĠPut":5076,"Ġneat":5077,"Ġsomewhat":5078,"Ġwilling":5079,"Ġstayed":5080,"ĠParis":5081,"Ġhunting":5082,"ĠBell":5083,"ĠWow":5084,"Ġknowing":5085,"ĠFuck":5086,"Ġmanaged":5087,"ĠChina":5088,"appy":5089,"Ġpainting":5090,"Ġreaches":5091,"Ġwagon":5092,"hel":5093,"Ġmult":5094,"Ġliter":5095,"Ġstyle":5096,"ching":5097,"ores":5098,"Ġcheek":5099,"Ġcondition":5100,"Ġinvestig":5101,"Ġsettled":5102,"Ġeld":5103,"ĠVirgin":5104,"Ġsmaller":5105,"Come":5106,"cise":5107,"omed":5108,"ĠAwards":5109,"Ġdoors":5110,"ĠDel":5111,"Ġcanton":5112,"apa":5113,"ooth":5114,"Ġslide":5115,"Ġlocated":5116,"Ġrisk":5117,"LES":5118,"May":5119,"liam":5120,"non":5121,"Ġscient":5122,"Ġcancer":5123,"ĠLos":5124,"Ġsuc":5125,"Ġvac":5126,"Ġcenter":5127,"achel":5128,"Ġfemale":5129,"ĠFlorida":5130,"aches":5131,"eaks":5132,"ĠDick":5133,"--\"":5134,"Ġclaim":5135,"ĠStep":5136,"ĠThose":5137,"AND":5138,"Ġdrinking":5139,"Ġsucceed":5140,"Ġtid":5141,"Ġlatter":5142,"umber":5143,"Ġconv":5144,"Ġslaves":5145,"Ġmovement":5146,"Ġobjects":5147,"Ġtickle":5148,"bon":5149,"nic":5150,"isa":5151,"Ġpony":5152,"Ġthus":5153,"ĠMolly":5154,"sequ":5155,"Ġstaff":5156,"Ġworst":5157,"Ġcloser":5158,"itched":5159,"ĠMo":5160,"Ġdozen":5161,"ĠBest":5162,"see":5163,"Ġknee":5164,"Ġaffect":5165,"Ġfinding":5166,"Ġballoon":5167,"GE":5168,"cing":5169,"Ġtask":5170,"ĠSE":5171,"ĠRol":5172,"Ġprefer":5173,"Ġprevious":5174,"Ġbits":5175,"Ġdistribut":5176,"Ġcolonel":5177,"Ġretired":5178,"Ġmurd":5179,"Ġpossibly":5180,"Ġbub":5181,"ĠSus":5182,"Ġrout":5183,"ented":5184,"ĠCamp":5185,"urb":5186,"Ġopin":5187,"ĠAlthough":5188,"Ġfeels":5189,"Ġbegins":5190,"Ġwindows":5191,"Ġstatement":5192,"Ġcastle":5193,"Ġbenef":5194,"Ġtitle":5195,"Ġresearch":5196,"atoes":5197,"ĠHur":5198,"ĠFranc":5199,"Ġchanges":5200,"Ġsquee":5201,"Ġofficial":5202,"liament":5203,"rist":5204,"isher":5205,"ĠPak":5206,"Ġcrime":5207,"Ġstaying":5208,"ĠCharlotte":5209,"Ġsuspect":5210,"Ġrules":5211,"spect":5212,"sighs":5213,"Åį":5214,"Ġboss":5215,"imate":5216,"Ġstock":5217,"allas":5218,"Ġpoet":5219,"ĠBarry":5220,"Ġrapid":5221,"ĠBecky":5222,"Ġcircumst":5223,"Ġodd":5224,"aly":5225,"oses":5226,"Ġprevent":5227,"Ġobl":5228,"Ġbloody":5229,"Ġdeveloped":5230,"SSS":5231,"Ġevents":5232,"ederal":5233,"ĠRussian":5234,"\".=":5235,"Ġtoes":5236,"essel":5237,"Ġpair":5238,"ĠTucker":5239,"ĠApp":5240,"ĠDiv":5241,"Ġfruit":5242,"Ġplayers":5243,"Ġaircraft":5244,"Ġrocks":5245,"Ġappearance":5246,"Ġrepeated":5247,"ae":5248,"lah":5249,"Ã¨":5250,"Ġaver":5251,"onse":5252,"ĠMount":5253,"ĠâĢľâĢĺ":5254,"Ġflag":5255,"Ġwhispered":5256,"ĠMexico":5257,"silver":5258,"mar":5259,"asing":5260,"Ġdoin":5261,"ĠNO":5262,"ĠUN":5263,"ĠAsian":5264,"Ġmagic":5265,"Ġordered":5266,"ĠMonday":5267,"BC":5268,"bits":5269,"rate":5270,"Ġmail":5271,"Ġforced":5272,"ental":5273,"ĠJew":5274,"berg":5275,"ĠChinese":5276,"Ġleading":5277,"ĠGrandma":5278,"ĠRoyal":5279,"Ġslightly":5280,"Ġmeal":5281,"Ġwhist":5282,"abr":5283,"Ġsposta":5284,"Ġmanager":5285,"Ġtroops":5286,"Ġteams":5287,"IA":5288,"Ġfishing":5289,"ĠHay":5290,"ĠHad":5291,"Ġancient":5292,"ifle":5293,"ĠOut":5294,"ĠFenn":5295,"Ġwriter":5296,"Ġremind":5297,"Ġscrat":5298,"Ġresol":5299,"Ġsixty":5300,"ĠProv":5301,"Ġcarrying":5302,"ĠSometimes":5303,"Ġblanket":5304,"Ġenvironment":5305,"ĠLaura":5306,"ker":5307,"rot":5308,"uf":5309,"ĠÃ":5310,"iti":5311,"atory":5312,"amn":5313,"stood":5314,"ĠLar":5315,"adder":5316,"Ġcrayons":5317,"Ġscarcely":5318,"Ġappreci":5319,"pet":5320,"ule":5321,"Ġ{":5322,"Ġaward":5323,"Ġfoc":5324,"anning":5325,"aling":5326,"ria":5327,"icked":5328,"ĠUp":5329,"ishment":5330,"Ġkeeps":5331,"Ġsigned":5332,"Ġavailable":5333,"ua":5334,"cean":5335,"ĠRachel":5336,"aph":5337,"ĠUrs":5338,"Ġcrash":5339,"Ġcopy":5340,"igsaw":5341,"Ġbot":5342,"aled":5343,"ĠMam":5344,"illed":5345,"ĠLat":5346,"Ġbutt":5347,"Ġelected":5348,"Ġsuccessful":5349,"ĠMatthew":5350,"ĠCollege":5351,"Ġbi":5352,"Ġpsych":5353,"Ġbee":5354,"enth":5355,"Ġstro":5356,"Ġpulls":5357,"Ġexcit":5358,"Ġsoftly":5359,"Ġknocked":5360,"Poss":5361,"Ġcute":5362,"ĠIr":5363,"Ġpour":5364,"ila":5365,"ĠJud":5366,"Ġalt":5367,"Ġacting":5368,"Ġtraining":5369,"Ġholiday":5370,"14":5371,"Ġstre":5372,"Ġknowledge":5373,"ĠEarly":5374,"ulous":5375,"Ġvessel":5376,"Ġexer":5377,"Ġexcellent":5378,"Ġotherwise":5379,"ĠRepublic":5380,"ĠSummer":5381,"Ġairplane":5382,"tr":5383,"Ġtour":5384,"ĠMax":5385,"tering":5386,"acks":5387,"Ġplants":5388,"Ġ2000":5389,"bey":5390,"Ġ2004":5391,"Ġdecide":5392,"fortun":5393,"utenant":5394,"fa":5395,"Ġfancy":5396,"Ġpow":5397,"Ġheaven":5398,"ilian":5399,"umn":5400,"Ġtrade":5401,"ĠAnother":5402,"Ġsilent":5403,"iety":5404,"13":5405,"bout":5406,"pre":5407,"Ġbike":5408,"ĠPolly":5409,"Ġafford":5410,"Ġamazing":5411,"Ġdragon":5412,"ĠArt":5413,"Ġforgotten":5414,"Ġdetermined":5415,"Ġfought":5416,"ĠIll":5417,"ĠTim":5418,"Ġ[.":5419,"Ġrom":5420,"Ġassoci":5421,"ĠDallas":5422,"Ġthrowing":5423,"Ġrealize":5424,"ĠCanad":5425,"Ġextreme":5426,"Ġsuggested":5427,"ĠWashing":5428,"Ġetc":5429,"Ġgently":5430,"ĠCO":5431,"Ġclap":5432,"aving":5433,"Ġ2003":5434,"Ġdolls":5435,"looking":5436,"ĠChicago":5437,"ĠOrder":5438,"Ġbare":5439,"Ġdise":5440,"ĠSun":5441,"ĠSel":5442,"rost":5443,"Ġuses":5444,"ĠStill":5445,"ĠCla":5446,"Ġhanging":5447,"Ġmemory":5448,"aa":5449,"Ġcred":5450,"Ġhomes":5451,"etch":5452,"Ġgoal":5453,"ĠPost":5454,"Ġtractor":5455,"tained":5456,"Ġpresence":5457,"Ġ1990":5458,"Ġburst":5459,"Ġorders":5460,"ĠWashington":5461,"Ġfeelings":5462,"Ġrelated":5463,"fly":5464,"pen":5465,"yr":5466,"hab":5467,"Ġmate":5468,"Ġfond":5469,"Ġjigsaw":5470,"Ġsaf":5471,"ĠUnder":5472,"Ġstops":5473,"Ġresponse":5474,"Ġoffered":5475,"NN":5476,"Ġthee":5477,"Ġbin":5478,"Ġyay":5479,"Ġder":5480,"Ġlake":5481,"ado":5482,"ĠBre":5483,"Ġupset":5484,"eping":5485,"Ġarrange":5486,"ultan":5487,"ĠArk":5488,"Ġshopping":5489,"ĠSomething":5490,"Ġrelationship":5491,"ĠALL":5492,"ĠLife":5493,"uments":5494,"action":5495,"place":5496,"ĠVan":5497,"Ġthrown":5498,"ĠAlright":5499,"Ġturtle":5500,"Ġpalace":5501,"with":5502,"Ġbatter":5503,"ĠPri":5504,"Ġsports":5505,"Ġbarn":5506,"Ġgang":5507,"ĠAwww":5508,"Ġrelease":5509,"ĠWel":5510,"ĠHaw":5511,"Ġdebut":5512,"ĠChief":5513,"Ġkinds":5514,"ESS":5515,"Ġaware":5516,"Ġ1980":5517,"Ġrespond":5518,"$=":5519,"ga":5520,"ĠÂ":5521,"Ġpred":5522,"arl":5523,"oms":5524,"Ġ[$=":5525,"ĠFe":5526,"izza":5527,"Ġrequire":5528,"Ġrecognized":5529,"Be":5530,"ĠHon":5531,"ĠNice":5532,"olars":5533,"Ġflight":5534,"Ġgreatest":5535,"ĠArab":5536,"Ġdolly":5537,"Ġmagn":5538,"Ġgovernor":5539,"ĠEverything":5540,"Ġmicrophone":5541,"lahoma":5542,"isions":5543,"OTH":5544,"Ġsees":5545,"Ġsocks":5546,"ols":5547,"Ġprogress":5548,"Ġshoulders":5549,"ĠMarilla":5550,"Ġeighteen":5551,"ajest":5552,"ĠSpain":5553,"ĠOlympics":5554,"ĠAccording":5555,"book":5556,"Ġaye":5557,"Ġcott":5558,"Ġnarrow":5559,"ading":5560,"Ġstranger":5561,"Ġfrogs":5562,"inc":5563,"ĠOx":5564,"ĠLake":5565,"Ġpartner":5566,"Ġthoughts":5567,"ĠEdm":5568,"Ġquietly":5569,"ĠOklahoma":5570,"Ġnursery":5571,"Ġexcitement":5572,"Ġfox":5573,"ĠFour":5574,"Ġeverywhere":5575,"Ġfourth":5576,"Ġvalue":5577,"ĠMargaret":5578,"down":5579,"Ġfurn":5580,"inger":5581,"Ġnorthern":5582,"Ġdeck":5583,"ĠYoung":5584,"Ġshowing":5585,"Ġlarger":5586,"Ġformula":5587,"Ġpatient":5588,"ĠProfess":5589,"fall":5590,"Ġyummy":5591,"Ġmor":5592,"ingu":5593,"ĠTown":5594,"ĠMaster":5595,"ĠBay":5596,"Ġnovel":5597,"uns":5598,"ĠIsn":5599,"Ġmatters":5600,"Ġremembered":5601,"Ġfully":5602,"ĠIm":5603,"ĠSal":5604,"ĠBull":5605,"ĠRock":5606,"inky":5607,"soft":5608,"Ġwaited":5609,"ĠRoger":5610,"ĠGabrie":5611,"ko":5612,"Ġweird":5613,"Ġshr":5614,"Ġextend":5615,"ogether":5616,"Ġterr":5617,"Ġneighbor":5618,"Ġwitness":5619,"dies":5620,"Ġachie":5621,"Ġdrama":5622,"mend":5623,"Ġ40":5624,"ias":5625,"rant":5626,"ship":5627,"Ġpushed":5628,"ata":5629,"ĠDE":5630,"Ġ(;":5631,"Ġprepar":5632,"Ġadminist":5633,"Ġscreen":5634,"Ġzoo":5635,"Ġescap":5636,"Ġdetect":5637,"Ġfrightened":5638,"giggles":5639,"Ġsch":5640,"ĠBilly":5641,"rying":5642,"ĠKim":5643,"ĠScot":5644,"Ġjudge":5645,"Where":5646,"hah":5647,"Ġmo":5648,"otion":5649,"ĠDet":5650,"ilities":5651,"igan":5652,"Ġcourage":5653,"Ġtrail":5654,"Ġcompanion":5655,"ĠAirport":5656,"Let":5657,"Ġwave":5658,"Ġwipe":5659,"Ġyo":5660,"ĠAbe":5661,"ĠWomen":5662,"actually":5663,"annah":5664,"Ġserve":5665,"Ġstudied":5666,"ĠBlue":5667,"Ġburied":5668,"ĠSanta":5669,"Ġpeekaboo":5670,"bow":5671,"Ġtim":5672,"Ġcousin":5673,"Ġdying":5674,"Ġriding":5675,"Ġstir":5676,"ĠCare":5677,"Ġmere":5678,"cel":5679,"ĠLong":5680,"Ġfarmer":5681,"apping":5682,"Ġexplained":5683,"Ġdata":5684,"Ġsmiling":5685,"ĠAngeles":5686,"ĠToday":5687,"',":5688,"KN":5689,"pan":5690,"Ġsac":5691,"Ġsink":5692,"ĠSa":5693,"ĠMill":5694,"Ġstom":5695,"ĠFil":5696,"Ġopens":5697,"aws":5698,"ĠGovernor":5699,"Ġestabl":5700,"ĠVirginia":5701,"Who":5702,"ials":5703,"vo":5704,"Ġsite":5705,"ano":5706,"ĠBa":5707,"ĠCast":5708,"azy":5709,"Ġinstant":5710,"Ġpowerful":5711,"UST":5712,"ĠCromer":5713,"Ġdirectly":5714,"ĠHAVE":5715,"Ġfile":5716,"ĠCath":5717,"ĠNight":5718,"ateg":5719,"Ġqual":5720,"Ġgreater":5721,"Ġchew":5722,"awa":5723,"Ġpassing":5724,"ĠAfrica":5725,"KAR":5726,"ients":5727,"Ġ[?":5728,"chief":5729,"ĠLast":5730,"ĠFine":5731,"chair":5732,"ĠShut":5733,"Ġcooking":5734,"ĠWindows":5735,"Ã¤":5736,"Ġgift":5737,"uman":5738,"Ġreply":5739,"Ġsentence":5740,"Ġplanning":5741,"Ġbaseball":5742,"Ġwedding":5743,"ube":5744,"Ġpra":5745,"Ġroles":5746,"Ġ190":5747,"uclear":5748,"Ġentertain":5749,"ĠJimmy":5750,"inois":5751,"Ġaverage":5752,"Ġsafety":5753,"Did":5754,"Ġmouse":5755,"ĠTurn":5756,"ĠWin":5757,"semb":5758,"Ġplat":5759,"Ġflo":5760,"Ġcontr":5761,"Ġrecently":5762,"Ġmission":5763,"Ġincludes":5764,"Ġmainly":5765,"Ġ1960":5766,"Ġconstruction":5767,"Ġbowl":5768,"Ġreckon":5769,"ĠGeorgia":5770,"Okay":5771,"uous":5772,"Ġbat":5773,"urance":5774,"ĠGar":5775,"ĠRuth":5776,"venue":5777,"Ġpeas":5778,"lands":5779,"Ġ31":5780,"ibility":5781,"Ġprize":5782,"ĠBraz":5783,"Al":5784,"ault":5785,"bel":5786,"there":5787,"ste":5788,"ĠFire":5789,"Ġepisode":5790,"ĠWITH":5791,"Ġopinion":5792,"Ġbump":5793,"astern":5794,"ĠCont":5795,"Ġplastic":5796,"ERS":5797,"ĠĠĠĠĠĠĠĠĠĠĠĠĠĠĠĠĠĠĠĠĠĠĠĠ":5798,"Ġadvant":5799,"Ġrecognize":5800,"Ġnormally":5801,"Possum":5802,"ware":5803,"year":5804,"Ġrings":5805,"ĠBrian":5806,"aming":5807,"ĠLin":5808,"ĠJason":5809,"Ġbecoming":5810,"ĠBarty":5811,"ĠBradley":5812,"Ġexpression":5813,"iliar":5814,"Ġmirror":5815,"ĠRoad":5816,"was":5817,"Ġwid":5818,"Ġtooth":5819,"ĠCourt":5820,"alley":5821,"Ġwheels":5822,"Ġshook":5823,"Ġshock":5824,"Ġarg":5825,"ANT":5826,"Ġpapa":5827,"ĠHarold":5828,"ĠZeal":5829,"Ġsticks":5830,"Ġdunno":5831,"rick":5832,"Ġess":5833,"Ġmama":5834,"ĠMove":5835,"sec":5836,"ĠFam":5837,"abeth":5838,"ĠVal":5839,"Ġ188":5840,"ĠMayenne":5841,"Ġevil":5842,"ĠIllinois":5843,"?'":5844,"Ġscience":5845,"Ġforms":5846,"ĠDa":5847,"Ġshell":5848,"ĠGirl":5849,"Ġcarriage":5850,"ential":5851,"Ġshel":5852,"ĠLie":5853,"olic":5854,"ishop":5855,"Ġ2002":5856,"Ġhorsie":5857,"Ġcircumstances":5858,"bie":5859,"hew":5860,"ĠTri":5861,"Ġsore":5862,"ĠEarth":5863,"ulty":5864,"asty":5865,"Ġsplend":5866,"Ġweeke":5867,"Ġwondering":5868,"ĠYOUR":5869,"ĠMcG":5870,"ograph":5871,"ĠItaly":5872,"ournament":5873,"Ġmagazine":5874,"Ġcad":5875,"Ġfuss":5876,"Ġpump":5877,"ĠMajor":5878,"ĠHim":5879,"Ġdey":5880,"useum":5881,"Ġbiggest":5882,"Ġbeauty":5883,"Ġproperty":5884,"ĠPilchard":5885,"aed":5886,"sed":5887,"Ġtip":5888,"Ġfal":5889,"ĠMet":5890,"ĠFar":5891,"EST":5892,"Ġmarriage":5893,"ĠDidn":5894,"Ġlanguages":5895,"Ġvehic":5896,"ĠRussia":5897,"heast":5898,"Ġcy":5899,"Ġmale":5900,"Ġboats":5901,"Ġqueer":5902,"Ġdesper":5903,"ĠShow":5904,"Ġjobs":5905,"Ġreceive":5906,"ĠJeff":5907,"Ġfailed":5908,"Ġseparate":5909,"Ġtarget":5910,"Ġestablished":5911,"ds":5912,"Ġinternational":5913,"icans":5914,"Ġselected":5915,"ros":5916,"ĠDutch":5917,"ĠPop":5918,"Ġunknown":5919,"ĠBrown":5920,"Ġshouted":5921,"ĠDemocratic":5922,"ĠArkansas":5923,"mark":5924,"making":5925,"Ġbisc":5926,"Ġyards":5927,"isse":5928,"Ġpizza":5929,"Ġreasons":5930,"Ġsection":5931,"Ġaside":5932,"ĠDolly":5933,"Ġprove":5934,"Ġbranch":5935,"Ġtend":5936,"ĠArmy":5937,"ĠKingdom":5938,"Ġpressure":5939,"Ġtotally":5940,"Ġelectric":5941,"Ġperformance":5942,"ĠFootball":5943,"DE":5944,"Good":5945,"vis":5946,"hand":5947,"Ġnative":5948,"Ġhook":5949,"ĠSqu":5950,"rol":5951,"ĠPo":5952,"ĠFre":5953,"aging":5954,"Ġagent":5955,"azed":5956,"Ġ1970":5957,"Ġcurrently":5958,"ĠProfessor":5959,"Ã¶":5960,"Ġaim":5961,"Ġthy":5962,"Ġdoggy":5963,"ĠBoth":5964,"ĠWent":5965,"ĠFa":5966,"ĠRay":5967,"ulated":5968,"Ġ2001":5969,"ĠEdward":5970,"Ġtribe":5971,"gypt":5972,"ĠSuper":5973,"Ġperformed":5974,"Tilda":5975,"Ġwished":5976,"Ġthir":5977,"ĠBes":5978,"herry":5979,"ĠDou":5980,"ĠFrost":5981,"ĠEmp":5982,"ĠEric":5983,"Ġhurried":5984,"Ġcookies":5985,"Ġadvice":5986,"Ġdreams":5987,"ĠChampionship":5988,"Ġcam":5989,"vert":5990,"ĠNE":5991,"ellig":5992,"Ġamb":5993,"Ġremoved":5994,"Ġinterview":5995,"Ġcentral":5996,"ological":5997,"Ġengaged":5998,"dro":5999,"llen":6000,"Ġthin":6001,"ooke":6002,"ĠBon":6003,"Ġdism":6004,"Ġexciting":6005,"Ġconfir":6006,"Ġartic":6007,"Ġrequest":6008,"Ġfrequ":6009,",]":6010,"bu":6011,"boy":6012,"Ġduh":6013,"Ġpale":6014,"Ġgat":6015,"ulations":6016,"eme":6017,"Ġeaten":6018,"Ġmatches":6019,"Ġdisappeared":6020,"Ġdescribed":6021,"Ġentirely":6022,"Ġindividual":6023,"Ġvoices":6024,"Are":6025,"UGH":6026,"iy":6027,"uits":6028,"Ġtummy":6029,"ora":6030,"ĠMAN":6031,"ĠOw":6032,"osition":6033,"Ġtrous":6034,"Ġchest":6035,"Ġterrit":6036,"Ġmetal":6037,"Ġdelicious":6038,"Ġfortune":6039,"Ġdamn":6040,"Ġhighest":6041,"ĠAfrican":6042,"pir":6043,"Ġwine":6044,"itar":6045,"ĠOl":6046,"ĠEgypt":6047,"osen":6048,"iano":6049,"Ġchampions":6050,"Ġactive":6051,"ĠEliz":6052,"Ġartist":6053,"Ġveget":6054,"Ġresults":6055,"Ġtradition":6056,"24":6057,"Here":6058,"tin":6059,"Ġsouthern":6060,"isha":6061,"Ġjail":6062,"Ġmedical":6063,"Ġforever":6064,"Ġpositive":6065,"Ġnewspaper":6066,"ĠBritain":6067,"IV":6068,"Ġfac":6069,"Ġghost":6070,"ĠMu":6071,"Ġreve":6072,"ĠBO":6073,"road":6074,"opher":6075,"Ġunderstood":6076,"Ġhelps":6077,"Ġincrease":6078,"anchester":6079,"\"?":6080,"war":6081,"itiz":6082,"ications":6083,"Ġjoke":6084,"ĠLater":6085,"Ġsomehow":6086,"Ġthrows":6087,"Ġadop":6088,"ONE":6089,"Ġpaying":6090,"ĠFrancis":6091,"Ġnut":6092,"Ġhunt":6093,"ĠTime":6094,"ĠCons":6095,"ĠCongress":6096,"ĠLight":6097,"umbo":6098,"geant":6099,"Ġdrops":6100,"Ġfairy":6101,"Ġdamage":6102,"Ġsmiled":6103,"whispers":6104,"Ġautom":6105,"Ġkm":6106,"illing":6107,"ilies":6108,"Ġtalks":6109,"Ġtransfer":6110,"Ġconstit":6111,"Ġgentlemen":6112,"Ġideas":6113,"ĠZealand":6114,"gent":6115,"ois":6116,"then":6117,"while":6118,"Ġhes":6119,"oto":6120,"unts":6121,"Ġfriendly":6122,"ĠRec":6123,"Ġhorrible":6124,"Ġsignific":6125,"Ġjumped":6126,"Ġcruel":6127,"Ġtouched":6128,"ĠSecretary":6129,"ajesty":6130,"fish":6131,"puts":6132,"Ġgor":6133,"ĠSO":6134,"ĠSon":6135,"Ġrib":6136,"Ġmel":6137,"ĠOb":6138,"Ġcommittee":6139,"Ġstudents":6140,"Ġsweetheart":6141,"III":6142,"ĠXX":6143,"ĠRemi":6144,"Ġgradu":6145,"Ġtrousers":6146,"Of":6147,"aft":6148,"cream":6149,"ridge":6150,"lled":6151,"Ġpil":6152,"ĠMass":6153,"Ġug":6154,"ĠPan":6155,"rig":6156,"Ġvot":6157,"ĠNobody":6158,"Ġparticip":6159,"Ġscore":6160,"Ġapparently":6161,"Ġglance":6162,"Ġprovide":6163,"Ġissues":6164,"ĠEdmund":6165,"ĠHmm":6166,"this":6167,"âĢĿ.":6168,"Ġdesire":6169,"oki":6170,"ĠWhoa":6171,"Ġprovided":6172,"Ġbeneath":6173,"Ġresponsible":6174,"New":6175,"PE":6176,"fers":6177,"gency":6178,"sm":6179,"Ġmort":6180,"Ġfart":6181,"ĠAlaed":6182,"Ġdrawn":6183,"Ġentr":6184,"Ġpuppy":6185,"Ġinfluence":6186,"ĠProvince":6187,"ĠAlaeddin":6188,"Ġdust":6189,"icing":6190,"ĠCross":6191,"ĠNed":6192,"umble":6193,"icking":6194,"ĠVer":6195,"nee":6196,"Ġadult":6197,"Ġends":6198,"Ġdrunk":6199,"Ġswitch":6200,"Ġreplaced":6201,"Ġnation":6202,"ĠTra":6203,"ĠMia":6204,"ĠHill":6205,"Ġsole":6206,"thur":6207,"apt":6208,"Ġcutting":6209,"ĠPrince":6210,"Ġoccurred":6211,"MW":6212,"ses":6213,"sung":6214,"Ġpant":6215,"utive":6216,"ĠMich":6217,"ĠBi":6218,"Ġstones":6219,"ĠDen":6220,"Ġsecurity":6221,"Ġslave":6222,"Ġfamiliar":6223,"Ġterror":6224,"Ġinstr":6225,"ipping":6226,"Ġinspect":6227,"Ġcharacters":6228,"Ġmountains":6229,"Ġauthority":6230,"ĠAlfgar":6231,"Ġdegree":6232,"90":6233,"put":6234,"Ġloose":6235,"ĠWood":6236,"ĠHor":6237,"Ġliber":6238,"hank":6239,"Ġcock":6240,"Ġfolks":6241,"An":6242,"TT":6243,"UCK":6244,"morrow":6245,"Ġwore":6246,"rond":6247,"ĠFore":6248,"ongrat":6249,"ĠKN":6250,"otted":6251,"Ġgarage":6252,"ĠRamsey":6253,"Ġstomach":6254,"Ġgathered":6255,"CA":6256,"yeah":6257,"Ã±":6258,"eral":6259,"Ġhorn":6260,"ilty":6261,"ĠNick":6262,"ĠGreek":6263,"ĠRush":6264,"ĠKansas":6265,"ĠStand":6266,"Ġcoal":6267,"ĠBrother":6268,"Ġuseful":6269,"Ġcats":6270,"ĠMission":6271,"Ġsoldier":6272,"iffs":6273,"Ġenjoyed":6274,"Ġweapons":6275,"Ġinnoc":6276,"Ġoblig":6277,"Ġdisease":6278,"Ġthirteen":6279,"law":6280,"yo":6281,"Ġwound":6282,"Ġfan":6283,"Ġfaint":6284,"ĠBUT":6285,"ĠWolf":6286,"ĠHas":6287,"ĠDun":6288,"gel":6289,"ĠAssoci":6290,"Ġspecific":6291,"Ġburning":6292,"Ġdestroyed":6293,"ĠBaby":6294,"Ġnearer":6295,"ĠSov":6296,"Ġwashing":6297,"Ġrare":6298,"ĠBost":6299,"ĠHot":6300,"ĠFive":6301,"Ġshame":6302,"ĠAtl":6303,"Ġchairs":6304,"ĠCenter":6305,"vest":6306,"Ġfant":6307,"Ġitems":6308,"ette":6309,"Ġarch":6310,"ĠThink":6311,"OULD":6312,"Ġ1994":6313,"Ġpossess":6314,"Ġstepped":6315,"ĠTurk":6316,"Ġchemical":6317,"lock":6318,"picks":6319,"Ġbark":6320,"Ġdu":6321,"oned":6322,"Ġgather":6323,"ĠWal":6324,"amin":6325,"Ġboots":6326,"Ġmusical":6327,"Ġinvited":6328,"Ġpattern":6329,"Ġweapon":6330,"Ġencour":6331,"ĠElizabeth":6332,"Ġdiam":6333,"Ġfier":6334,"Ġlies":6335,"ĠNOT":6336,"usted":6337,"ands":6338,"Ġ1995":6339,"ointment":6340,"Ġhonour":6341,"Ġbutterfly":6342,"points":6343,"sque":6344,"Ġdim":6345,"Ġinvent":6346,"ĠSultan":6347,"ĠBack":6348,"ĠBible":6349,"ĠFair":6350,"Ġsuffe":6351,"ocr":6352,"Ġhearing":6353,"Ġ1996":6354,"Ġ1997":6355,"ĠShould":6356,"Ġforgive":6357,"Ġpoliceman":6358,"Ġcandy":6359,"ĠMickey":6360,"ĠCanadian":6361,"ĠWentworth":6362,"rondisse":6363,"krain":6364,"pri":6365,"Ġ~":6366,"Ġtied":6367,"Ġtoile":6368,"Ġsociety":6369,"ĠRod":6370,"Ġsaving":6371,"Ġbitch":6372,"Ġ1999":6373,"Ġcurious":6374,"Ġeastern":6375,"Ġlearning":6376,"Ġordinary":6377,"Ġdefend":6378,"--------------------------------":6379,"Ġlone":6380,"Ġhabit":6381,"ĠSouthern":6382,"ĠPen":6383,"ĠGil":6384,"ĠEv":6385,"estival":6386,"Ġquit":6387,"Ġchosen":6388,"ANG":6389,"igned":6390,"Ġfourteen":6391,"Ġboxes":6392,"Ġdrove":6393,"ĠDavis":6394,"Ġlifted":6395,"Ġearnest":6396,"KE":6397,"Ġbones":6398,"Ġyard":6399,"Ġcash":6400,"aring":6401,"Ġrang":6402,"ĠCON":6403,"Ġvent":6404,"Ġquack":6405,"Ġgrate":6406,"Ġwarri":6407,"shouts":6408,"Ġclosely":6409,"Ġsweetie":6410,"Ġconcent":6411,"ĠSwed":6412,"ĠCentral":6413,"ournal":6414,"At":6415,"Ġfired":6416,"Ġfreed":6417,"esota":6418,"Ġpic":6419,"Ġpile":6420,"Ġladder":6421,"Ġbeast":6422,"ĠSpr":6423,"Ġrushed":6424,"ĠFanning":6425,"Ġshh":6426,"odes":6427,"Ġbricks":6428,"ipper":6429,"Ġapproach":6430,"scream":6431,"Ġobserved":6432,"Ġarrested":6433,"HHH":6434,"ĠBoston":6435,"Ġrank":6436,"Ġrush":6437,"Ġ\"'":6438,"elle":6439,"Ġcomedy":6440,"bec":6441,"Ġowner":6442,"Ġbreaking":6443,"Ġpulling":6444,"ĠTrans":6445,"Ġraise":6446,"Ġrolling":6447,"Ġaccepted":6448,"Ġgalley":6449,"Ġmaterial":6450,"Ġweekend":6451,"Ġlack":6452,"Ġnope":6453,"ability":6454,"ĠConf":6455,"Ġdarkness":6456,"Ġtypes":6457,"Ġshooting":6458,"Ġgodd":6459,"aspberry":6460,"ĠMinnesota":6461,"\"]":6462,"Ġdoo":6463,"Ġlamb":6464,"athan":6465,"Ġhee":6466,"ĠMos":6467,"ĠBea":6468,"ctors":6469,"hib":6470,"Ġchanging":6471,"Ġacid":6472,"Ġfailure":6473,"Ġlemme":6474,"ĠPakistan":6475,"When":6476,"Ġcas":6477,"Ġfacing":6478,"Ġpages":6479,"Ġlord":6480,"ĠSpe":6481,"imme":6482,"umps":6483,"eps":6484,"Ġproced":6485,"Ġarrang":6486,"Ġthroughout":6487,"Ġminor":6488,"Ġpicking":6489,"ception":6490,"Ġkidding":6491,"Ġcookie":6492,"22":6493,"li":6494,"Ġtear":6495,"Ġgained":6496,"Ġsem":6497,"ĠThr":6498,"ivity":6499,"Ġhighly":6500,"Ġsymp":6501,"Ġreported":6502,"Ġequip":6503,"Ġjacket":6504,"Ġmadam":6505,"ĠOlympic":6506,"ĠCasson":6507,"Amer":6508,"MP":6509,"bling":6510,"lers":6511,"Ġx":6512,"Ġtoss":6513,"uted":6514,"ĠYe":6515,"Ġbranc":6516,"ĠAndy":6517,"Ġguilty":6518,"Ġowned":6519,"Ġincident":6520,"Ġcraft":6521,"RIC":6522,"Ġdesigned":6523,"Ġdocument":6524,"car":6525,"cies":6526,"Ġsen":6527,"Ġpushing":6528,"eta":6529,"ĠAB":6530,"iece":6531,"Ġbodies":6532,".\"]":6533,"Ġpron":6534,"Ġhurts":6535,"ennis":6536,"Ġgiant":6537,"Ġtransport":6538,"ĠDaniel":6539,"Ġcreate":6540,"ĠAustralian":6541,"OOK":6542,"Ġintroduced":6543,"ĠGraeme":6544,"Ġsplendid":6545,"Ġtough":6546,"Ġdiss":6547,"Ġnerv":6548,"ĠHuh":6549,"ĠCur":6550,"Ġupside":6551,"rier":6552,"emies":6553,"Ġcrim":6554,"Ġ1992":6555,"ĠPrime":6556,"Ġbanana":6557,"views":6558,"ĠNext":6559,"Ġcompetition":6560,"ĠActually":6561,"BE":6562,"mond":6563,"wo":6564,"Ġtal":6565,"Ġcave":6566,"Ġmap":6567,"Ġfaster":6568,"ani":6569,"Ġpor":6570,"ĠSil":6571,"ĠSix":6572,"ĠWhe":6573,"ĠHome":6574,"ĠHolly":6575,"ĠEach":6576,"Ġsuck":6577,"ĠGreater":6578,"Ġstrike":6579,"Ġadvantage":6580,"40":6581,"water":6582,"ĠServ":6583,"keys":6584,"ĠWestern":6585,"ĠCle":6586,"anton":6587,"Ġconce":6588,"ĠKen":6589,"Ġsmooth":6590,"Ġstring":6591,"Ġbadly":6592,"ĠPatty":6593,"ĠAgnes":6594,"ĠLeave":6595,"ropical":6596,"ĠRobin":6597,"Ġcitiz":6598,"enced":6599,"ĠShan":6600,"ĠDeb":6601,"ĠPapa":6602,"elled":6603,"Ġcovers":6604,"Ġ1998":6605,"Ġmethod":6606,"Ġlaws":6607,"Ġcircus":6608,"Ġmummie":6609,"ĠMexican":6610,"Ġtoilet":6611,"GIN":6612,"eks":6613,"yes":6614,"yard":6615,"Ġbone":6616,"enger":6617,"Ġnuts":6618,"ĠTig":6619,"ĠCam":6620,"Ġliqu":6621,"uchi":6622,"Ġfamilies":6623,"ĠArthur":6624,"ĠJohnson":6625,"Ġrealized":6626,"Ġsignal":6627,"Ġincred":6628,"ĠTeam":6629,"Ġdifficulty":6630,"ĠCommun":6631,"Ġprogramme":6632,"Ġinterrupts":6633,"Ġhammer":6634,"Ġelder":6635,"UL":6636,"bury":6637,"Ġtournament":6638,"happy":6639,"Ġmile":6640,"Ġfence":6641,"cho":6642,"umed":6643,"Ġsprang":6644,"ĠStud":6645,"ĠEddie":6646,"Ġtribes":6647,"Ġrecords":6648,"Ġactivity":6649,"ĠMichigan":6650,"KK":6651,"Ġdump":6652,"icop":6653,"Ġrise":6654,"lyn":6655,"Ġsav":6656,"inda":6657,"ĠUkrain":6658,"ARD":6659,"Ġuniversity":6660,"Ġsurely":6661,"Ġrestaur":6662,"Ġexperien":6663,"Ġdivor":6664,"Ġbesides":6665,"ĠMusic":6666,"affe":6667,"Ġsang":6668,"Ġpoo":6669,"ĠSara":6670,"ĠWinn":6671,"Ġseek":6672,"Ġtruly":6673,"Ġeats":6674,"Ġresour":6675,"Ġdrown":6676,"Ġharder":6677,"Ġlistened":6678,"Ġapartment":6679,"Ġhasta":6680,"Ġpillow":6681,"ĠOxford":6682,"Ġsuffered":6683,"HAR":6684,"Ste":6685,"gt":6686,"tt":6687,"Ġcough":6688,"Ġstol":6689,"ĠDON":6690,"Ġsport":6691,"ĠAlso":6692,"alds":6693,"engers":6694,"ĠCommittee":6695,"Ġapolog":6696,"HL":6697,"rison":6698,"erable":6699,"lling":6700,"esh":6701,"Ġpadd":6702,"Ġpup":6703,"lection":6704,"iring":6705,"Ġimit":6706,"Ġprotest":6707,"ĠJoey":6708,"ĠCompany":6709,"Ġdrugs":6710,"lim":6711,"Ġouch":6712,"Ġwounded":6713,"Ġbra":6714,"ormed":6715,"ĠSur":6716,"ĠSav":6717,"ĠWatch":6718,"Ġsevere":6719,"iffe":6720,"Ġupper":6721,"Ġcommer":6722,"Ġspo":6723,"Ġspare":6724,"Ġcloth":6725,"aren":6726,"Ġcris":6727,"Ġseriously":6728,"Ġsixteen":6729,"fecture":6730,"Ġhearts":6731,"Ġpowder":6732,"Ġcredit":6733,"ĠSoviet":6734,"Cause":6735,"ture":6736,"Ġaid":6737,"Ġholes":6738,"ĠBook":6739,"Ġsomethin":6740,"Ġpoison":6741,"ĠĠĠĠĠĠĠĠĠĠĠĠĠĠĠĠĠĠĠĠĠĠĠĠĠĠĠĠĠĠĠĠ":6742,"Ġcrossed":6743,"ĠWilliams":6744,"ĠSecond":6745,"ĠRepublican":6746,"ĠBuild":6747,"Ġintended":6748,"As":6749,"Ġ0":6750,"Ġast":6751,"Ġwaves":6752,"Ġhug":6753,"ĠAp":6754,"ĠARE":6755,"ĠBang":6756,"agu":6757,"ĠKelly":6758,"ĠStay":6759,"Ġours":6760,"Ġaccess":6761,"Ġstandard":6762,"Ġdelay":6763,"ĠTommy":6764,"Ġequal":6765,"Ġsmiles":6766,"Ġprincess":6767,"kisses":6768,"ĠBesides":6769,"Ar":6770,"JUD":6771,"To":6772,"ban":6773,"gi":6774,"Ġborder":6775,"Ġgay":6776,"Ġrising":6777,"Ġanti":6778,"alled":6779,"Ġjeal":6780,"wey":6781,"Ġdishes":6782,"Ġactual":6783,"Ġleague":6784,"----\"":6785,"Ġï¿½ï¿½ï¿½ï¿½ï¿½":6786,"ĠClub":6787,"ĠHarris":6788,"Ġrecorder":6789,"Ġrecording":6790,"ĠHelp":6791,"Ġcaptured":6792,"ĠJerry":6793,"Ġsettlement":6794,"Ġindustry":6795,"Ġfeatures":6796,"Ġequipment":6797,"Ġbranches":6798,"Com":6799,"hus":6800,"Ġaunt":6801,"Ġcongress":6802,"ĠHu":6803,"Ġunf":6804,"Ġchips":6805,"Ġtrial":6806,"Ġtraffic":6807,"Ġsending":6808,"Ġproposed":6809,"Ġlocked":6810,"Ġsplit":6811,"ĠRemember":6812,"Ġslept":6813,"ĠKorea":6814,"Ġhen":6815,"Ġrhy":6816,"ĠBas":6817,"Ġconsequ":6818,"Ġunus":6819,"Ġappointed":6820,"ĠAsh":6821,"Ġrelax":6822,"Ġbalance":6823,"21":6824,"Chi":6825,"iation":6826,"met":6827,"||":6828,"onia":6829,"ĠSit":6830,"Ġrope":6831,"sters":6832,"Ġbrings":6833,"reeks":6834,"Ġkindly":6835,"Ġsword":6836,"Ġpresently":6837,"aze":6838,"ĠDewey":6839,"Ġkilling":6840,"Ġproduction":6841,"Ġkissed":6842,"ĠRepresent":6843,"Ġavoid":6844,"Ġefforts":6845,"ĠUrsula":6846,"Ġstreets":6847,"Ġaston":6848,"Ġwinning":6849,"reck":6850,"Ġfoll":6851,"Ġnic":6852,"ĠMake":6853,"Ġstern":6854,"Ġmeas":6855,"ĠPooh":6856,"ĠOff":6857,"ĠLand":6858,"...\"":6859,"Ġchain":6860,"Ġtrains":6861,"Ġbuildings":6862,"ĠEverybody":6863,"Ġscare":6864,"Ġcompanies":6865,"Ġcandid":6866,"Ġtheory":6867,"Ġborrow":6868,"Ġdwell":6869,"Ġhidden":6870,"Ġwhee":6871,"ĠLwww":6872,"lfr":6873,"Ġlets":6874,"addressed":6875,"Ġgreatly":6876,"Ġrooms":6877,"Ġsigns":6878,"Ġplanned":6879,"Ġrecorded":6880,"Ġlads":6881,"ĠEveryone":6882,"Ġclimbing":6883,"Ġmixed":6884,"Ġaffair":6885,"Ġappreciate":6886,"**":6887,"zer":6888,"intend":6889,"ĠSOME":6890,"Ġwashed":6891,"ĠWed":6892,"eable":6893,"ĠPenn":6894,"ĠJumbo":6895,"olph":6896,"rael":6897,"Ġenemies":6898,"Ġcrown":6899,"ĠAlice":6900,"ĠAmericans":6901,"Ġ60":6902,"Ġrolls":6903,"Ġtreated":6904,"Ġnominated":6905,"Ġsource":6906,"American":6907,"60":6908,"mad":6909,"nie":6910,"Å«":6911,"Ġtent":6912,"Ġath":6913,"ĠNa":6914,"quar":6915,"Ġboot":6916,"ialect":6917,"Ġkeys":6918,"Ġresist":6919,"ailed":6920,"Ġdeliver":6921,"Ġmajority":6922,"Ġvictory":6923,"Ġflew":6924,"Ġdistributed":6925,"ĠKNOW":6926,"ĠAssociation":6927,"lfriend":6928,"MC":6929,"Ġhockey":6930,"Ġlibr":6931,"Ġspeaks":6932,"ĠStar":6933,"Ġprecious":6934,"Ġhousehold":6935,"Ġwondered":6936,"Ġsquir":6937,"ĠAnyway":6938,"Ġcompanions":6939,"Ġlonely":6940,"cod":6941,"lam":6942,"Ġinha":6943,"ĠLower":6944,"Ġuns":6945,"ĠVis":6946,"Ġpregn":6947,"Ġguest":6948,"Ġdeser":6949,"Ġbecomes":6950,"Ġproduce":6951,"ippi":6952,"Ġhoping":6953,"Ġbriefly":6954,"Ġrapidly":6955,"ige":6956,"Ġwire":6957,"Ġbent":6958,"ĠHappy":6959,"ĠHannah":6960,"Ġsofa":6961,"uma":6962,"ĠRad":6963,"hia":6964,"Ġleans":6965,"iana":6966,"Ġslipped":6967,"Ġchannel":6968,"Ġrecom":6969,"ĠMississ":6970,"Ġhandsome":6971,"Ġleaders":6972,"Ġtyp":6973,"Ġcritic":6974,"Ġjealous":6975,"RY":6976,"Ġpiano":6977,"ĠNic":6978,"ĠRal":6979,"Ġsuffic":6980,"Ġunfortun":6981,"Ġjumping":6982,"Ġdivision":6983,"Ġburned":6984,"ĠPortug":6985,"ĠFaith":6986,"CI":6987,"five":6988,"gate":6989,"long":6990,"Ġmike":6991,"Ġdish":6992,"Ġpension":6993,"Ġbears":6994,"ador":6995,"Ġsaus":6996,"agn":6997,"Ġgrant":6998,"ĠInst":6999,"rences":7000,"neath":7001,"Ġpointed":7002,"Ġphil":7003,"atively":7004,"Ġ1986":7005,"Ġmedal":7006,"Ġoriginally":7007,"Ġprisoner":7008,"playing":7009,"ĠGabriella":7010,"bour":7011,"low":7012,"overy":7013,"press":7014,"Ġdialect":7015,"Ġfed":7016,"ĠTy":7017,"ĠAng":7018,"ali":7019,"ĠYear":7020,"ĠDire":7021,"Ġknight":7022,"ella":7023,"Ġcolour":7024,"ibi":7025,"vocalizes":7026,"Ġaltogether":7027,").=":7028,"FAD":7029,"bage":7030,"Ġoop":7031,"Ġpity":7032,"Ġgimme":7033,"ĠTry":7034,"Ġee":7035,"stery":7036,"cend":7037,"ĠPoor":7038,"ellow":7039,"Ġmyster":7040,"ĠJon":7041,"ĠJake":7042,"Ġplus":7043,"Ġoldest":7044,"Ġgrandmother":7045,"Ġattacked":7046,"ĠAdams":7047,"Ġdivided":7048,"1999":7049,"Ġemergency":7050,"Ġindependent":7051,"ĠRolan":7052,"ĠMississippi":7053,"Ġtiss":7054,"ĠBaker":7055,"Ġseats":7056,"ieve":7057,"artment":7058,"Ġqueen":7059,"uddle":7060,"Ġtender":7061,"Ġdesert":7062,"Ġdistinct":7063,"eaking":7064,"gery":7065,"Ġawake":7066,"Ġsteady":7067,"Ġchecked":7068,"Ġtransl":7069,"Ġorganization":7070,"ĠGovernment":7071,"IG":7072,"ancial":7073,"ĠTor":7074,"Ġbeer":7075,"ĠPers":7076,"Ġdemon":7077,"Ġagre":7078,"Ġbetray":7079,"lings":7080,"Ġcontent":7081,"Ġbreast":7082,"198":7083,"Ġexpensive":7084,"aska":7085,"Ġcreature":7086,"ĠDanny":7087,"Ġmanagement":7088,"Ġculture":7089,"ĠDivision":7090,"Ġexercise":7091,"olarship":7092,"Ġnervous":7093,"For":7094,"Ġpushes":7095,"Ġthorough":7096,"elia":7097,"Ġwhenever":7098,"Ġblame":7099,"IST":7100,"ancing":7101,"standing":7102,"ĠWillie":7103,"Ġstudio":7104,"ĠPatrick":7105,"hetti":7106,"Ġsatisfied":7107,"Ġshadow":7108,"Ġescaped":7109,"ĠFamily":7110,"ĠRalph":7111,"Ġbunch":7112,"Ġdea":7113,"Ġlit":7114,"Ġbelly":7115,"ĠKn":7116,"Ġhelicop":7117,"Ġsuppl":7118,"Ġsorts":7119,"Ġ1993":7120,"Ġconfidence":7121,"Ġfields":7122,"Ġpigs":7123,"Ġmammy":7124,"Ġprofessor":7125,"moans":7126,"Ġpirates":7127,"Ġinquired":7128,"Ġproducer":7129,"Ġsurround":7130,"Ġevidently":7131,"Ġsisters":7132,"gues":7133,"iture":7134,"Ġcouch":7135,"Ġlin":7136,"icide":7137,"ĠAS":7138,"ĠSol":7139,"ĠSuch":7140,"Ġrifle":7141,"ams":7142,"ĠHol":7143,"ĠCa":7144,"Ġsequ":7145,"ĠNan":7146,"Ġsoap":7147,"aine":7148,"Ġbrand":7149,"Ġuncom":7150,"ileen":7151,"Ġscr":7152,"Ġbitter":7153,"Ġrelief":7154,"ĠLooks":7155,"Ġhipp":7156,"Ġmarked":7157,"umbled":7158,"Ġicecream":7159,"ĠParliament":7160,"ĠAnything":7161,"ĠMadam":7162,"stein":7163,"Ġdiamond":7164,"25":7165,"Just":7166,"bal":7167,"Ġmig":7168,"ĠSax":7169,"Ġrat":7170,"ĠCooper":7171,"uries":7172,"ĠJenny":7173,"ĠRun":7174,"Ġgrace":7175,"Ġamend":7176,"gging":7177,"ĠAlan":7178,"Ġsetting":7179,"Ġdecor":7180,"Ġpresented":7181,"Ġrequired":7182,"Ġdelighted":7183,"Ġpersons":7184,"Ġadventure":7185,"On":7186,"ev":7187,"zo":7188,"Ġsorrow":7189,"Ġowe":7190,"Ġbon":7191,"Ġcents":7192,"Ġpond":7193,"Ġrear":7194,"ĠCAN":7195,"Ġnoisy":7196,"ĠPir":7197,"Ġspite":7198,"Ġproved":7199,"ĠWhatever":7200,"Ġblowing":7201,"Ġunderneath":7202,"Ġmoments":7203,"Ġpengu":7204,"Ġlessons":7205,"Ġprior":7206,"ĠBarb":7207,"Ġglasses":7208,"Ġincreased":7209,"stitute":7210,"Ġseventy":7211,"Ġpirate":7212,"gb":7213,"zing":7214,"ĠIran":7215,"ĠMajesty":7216,"Ġren":7217,"Ġstove":7218,"ĠHoney":7219,"Ġboom":7220,"ĠInter":7221,"oving":7222,"Ġflu":7223,"ĠIsrael":7224,"ĠAnna":7225,"Ġsooner":7226,"Ġ1991":7227,"ĠClar":7228,"Ġ90":7229,"Ġpupp":7230,"Ġheavily":7231,"Ġpiggy":7232,"Ġrepresented":7233,"ĠHurry":7234,"ĠLatin":7235,"OB":7236,"Um":7237,"sa":7238,"some":7239,"Ġwise":7240,"hall":7241,"adium":7242,"ĠYorks":7243,"Ġshed":7244,"Ġconqu":7245,"peror":7246,"Ġapples":7247,"Ġcontest":7248,"OUT":7249,"Ġ1988":7250,"Ġlegal":7251,"Ġextent":7252,"ĠSomeone":7253,"Ġadvanced":7254,"Ġfarther":7255,"case":7256,"cont":7257,"pro":7258,"refers":7259,"erous":7260,"aned":7261,"asant":7262,"Ġmechan":7263,"ĠOpen":7264,"Ġspin":7265,"Ġarmed":7266,"aval":7267,"onsense":7268,"Ġswall":7269,"Ġswift":7270,"ĠTHERE":7271,"Ġpotatoes":7272,"Ġregarded":7273,"Ġdrug":7274,"Ġstruggle":7275,"Ġgiraffe":7276,"bird":7277,"Ġwra":7278,"hamed":7279,"ĠIII":7280,"eding":7281,"Ġlosing":7282,"ĠMen":7283,"ĠMars":7284,"ĠCOM":7285,"Ġgosh":7286,"ĠPac":7287,"ĠNorthern":7288,"gend":7289,"acker":7290,"Ġalarm":7291,"Ġclient":7292,"ISS":7293,"Ġcheeks":7294,"Ġpassion":7295,"nesday":7296,"Ġcustom":7297,"ĠEmpire":7298,"Ġpicnic":7299,"Steve":7300,"ĠYorkshire":7301,"AB":7302,"lory":7303,"win":7304,"Ġben":7305,"Ġfate":7306,"Ġpure":7307,"Ġrac":7308,"Ġsheet":7309,"ĠLE":7310,"ĠLes":7311,"ATION":7312,"istry":7313,"Ġworn":7314,"Ġvain":7315,"Ġflash":7316,"Ġrefused":7317,"Ġforeign":7318,"LEA":7319,"Ġoperation":7320,"Ġbelongs":7321,"Ġcollection":7322,"IFA":7323,"Ġhesit":7324,"AIN":7325,"ĠAle":7326,"ĠHart":7327,"ĠDi":7328,"ĠDave":7329,"Ġcannon":7330,"ĠFox":7331,"Ġconclud":7332,"Ġgoodbye":7333,"Ġunit":7334,"Ġremains":7335,"Ġsche":7336,"Ġcompar":7337,"Ġrescue":7338,"iverse":7339,"ĠGroup":7340,"Ġsymb":7341,"Ġgrandfather":7342,"Ġvillages":7343,"Ġresponsibility":7344,"Ġreligion":7345,"ĠSenate":7346,"Ġscratch":7347,"py":7348,"ties":7349,"Ġbord":7350,"Ġgy":7351,"Ġnuclear":7352,"ayne":7353,"ĠSher":7354,"ĠYep":7355,"ĠPorter":7356,"Ġjournal":7357,"ĠLI":7358,"ĠJr":7359,"ouri":7360,"Ġroy":7361,"Ġchamp":7362,"Ġbelt":7363,"Ġinstance":7364,"ennes":7365,"Ġ1987":7366,"Ġfifth":7367,"Ġmarks":7368,"blows":7369,"Ġaccompl":7370,"Ġreferred":7371,"Ġclouds":7372,"bly":7373,"wing":7374,"rels":7375,"Ġcode":7376,"Ġding":7377,"Ġintern":7378,"lying":7379,"ĠHard":7380,"Ġmeasure":7381,"ĠFer":7382,"ĠFIFA":7383,"ĠAsia":7384,"Ġstudent":7385,"ĠAuntie":7386,"ĠPolice":7387,"Ġcrocod":7388,"Ġpaused":7389,"ĠPostman":7390,"Ġneighborhood":7391,"Ġfollows":7392,"Ġlibrary":7393,"TS":7394,"rom":7395,"wa":7396,"Ġtub":7397,"asa":7398,"ĠAL":7399,"ĠBed":7400,"Ġbold":7401,"ĠStanton":7402,"Ġgrap":7403,"Ġ185":7404,"Ġpurcha":7405,"Ġcleaning":7406,"Ġadvance":7407,"Ġamongst":7408,"idae":7409,"ĠCatholic":7410,"ĠMcGlory":7411,"Ġugly":7412,"rondissement":7413,"Cl":7414,"Your":7415,"syl":7416,"Ġwinner":7417,"Ġwitch":7418,"ĠTen":7419,"ĠTem":7420,"ĠHun":7421,"ĠOUT":7422,"Ġsale":7423,"Ġspect":7424,"icket":7425,"ĠKenn":7426,"hess":7427,"Ġleaf":7428,"Ġsubst":7429,"Ġ1989":7430,"Ġengines":7431,"Ġspirits":7432,"AKE":7433,"Ġentrance":7434,"Ġstolen":7435,"__":7436,"mun":7437,"nor":7438,"wyn":7439,"western":7440,"Ġcig":7441,"Ġmole":7442,"ĠInt":7443,"Ġpitch":7444,"Ġhut":7445,"Ġrice":7446,"ĠWork":7447,"Ġstool":7448,"rose":7449,"ĠDown":7450,"ĠGi":7451,"ĠEXP":7452,"Ġgotten":7453,"Ġspr":7454,"Ġuseta":7455,"issa":7456,"Ġworkers":7457,"inton":7458,"oyal":7459,"Ġincome":7460,"Ġ1972":7461,"Ġticket":7462,"Ġvolume":7463,"Ġimprove":7464,"Ġromantic":7465,"Ġjam":7466,"ĠLilian":7467,"Ġvast":7468,"athy":7469,"Ġbush":7470,"Ġstuffed":7471,"197":7472,"ĠJackson":7473,"Ġsalt":7474,"ursday":7475,"Ġfleet":7476,"Ġfolk":7477,"Ġeagerly":7478,"ĠDisney":7479,"ĠLincol":7480,"Can":7481,"WE":7482,"Ġbast":7483,"itan":7484,"Ġtoe":7485,"Ġlat":7486,"Ġwealth":7487,"keep":7488,"ira":7489,"ĠWall":7490,"ĠFord":7491,"ĠJeth":7492,"umes":7493,"ĠRome":7494,"ĠĠĠĠĠ":7495,"Ġpartly":7496,"Ġchums":7497,"Ġfinds":7498,"Ġcheap":7499,"ĠDeath":7500,"Ġstronger":7501,"Ġappropri":7502,"ĠMaisy":7503,"Ġbasically":7504,"whispering":7505,"Ġsuspic":7506,"Ġsucceeded":7507,"Ġbuttons":7508,"ĠBrazil":7509,"Ġgrateful":7510,"Ġinhabit":7511,"Thank":7512,"Ġay":7513,"Ġsession":7514,"Ġocean":7515,"Ġcows":7516,"Ġcounter":7517,"ĠAD":7518,"ĠSally":7519,"Ġrug":7520,"ĠHockey":7521,"ĠCL":7522,"stone":7523,"Ġjew":7524,"umm":7525,"ĠRose":7526,"ĠRah":7527,"Ġcomr":7528,"hio":7529,"Ġparties":7530,"Ġregret":7531,"Ġsleepy":7532,"Ġ1985":7533,"Ġsteal":7534,"ĠProbably":7535,"Ġducks":7536,"Ġ1950":7537,"Ġthousands":7538,"Ġshark":7539,"Ġhoped":7540,"Ġpersu":7541,"ĠCarolina":7542,"Ġreligious":7543,"iable":7544,"jack":7545,"atre":7546,"ĠTan":7547,"ĠAyl":7548,"ĠAileen":7549,"Ġwasher":7550,"Ġnotes":7551,"ĠNancy":7552,"Ġaltern":7553,"Ġspark":7554,"ĠUs":7555,"Ġpean":7556,"Ġslip":7557,"ĠGrace":7558,"Ġconsult":7559,"Ġlanded":7560,"Ġdaily":7561,"Ġeffects":7562,"ophie":7563,"Ġwhistle":7564,"Ġinnocent":7565,"'...":7566,"23":7567,"OS":7568,"bar":7569,"corn":7570,"iches":7571,"ĠTa":7572,"ĠAha":7573,"Ġrust":7574,"amps":7575,"ĠHind":7576,"Ġsock":7577,"ĠGord":7578,"ĠLola":7579,"Ġletting":7580,"Ġshaking":7581,"Ġcontribut":7582,"Ġminister":7583,"Ġcounties":7584,"Ġtermin":7585,"Ġannoy":7586,"Ġconditions":7587,"Ġraining":7588,"Ġpropos":7589,"Ġspending":7590,"Ġprotection":7591,"Ġsuffer":7592,"Ġfalse":7593,"Ġterritory":7594,"Ġunusual":7595,"bag":7596,"hta":7597,"iar":7598,"mes":7599,"sk":7600,"turn":7601,"Ġguide":7602,"Ġpassengers":7603,"ĠDev":7604,"Ġcompleted":7605,"Ġadmit":7606,"ĠDepartment":7607,"AA":7608,"April":7609,"DER":7610,"Per":7611,"Qu":7612,"zed":7613,"Ġwip":7614,"oubles":7615,"Ġsings":7616,"Ġna":7617,"ĠLisa":7618,"ulate":7619,"ĠKang":7620,"Ġhanded":7621,"Ġchop":7622,"Ġchose":7623,"Ġrecent":7624,"Ġdeserve":7625,"Ġ189":7626,"okes":7627,"which":7628,"Ġlately":7629,"Ġloving":7630,"burgh":7631,"ĠLucas":7632,"Ġtracks":7633,"ĠLawrence":7634,"Ġgirlfriend":7635,"ĠGolden":7636,"Ġpermission":7637,"writer":7638,"ĠStephen":7639,"ĠHayden":7640,"Ġarranged":7641,"Ġscheme":7642,"hun":7643,"Ġmood":7644,"Ġpowers":7645,"ĠRoss":7646,"OUN":7647,"Ġphr":7648,"Ġcauses":7649,"Ġdriven":7650,"Ġ1979":7651,"Ġreports":7652,"Ġmurm":7653,"Ġestim":7654,"Ġfortun":7655,"Ġselling":7656,"Ġachieve":7657,"screams":7658,"Ah":7659,"aunt":7660,"give":7661,"ni":7662,"ĠSA":7663,"acle":7664,"ĠWater":7665,"Ġability":7666,"elp":7667,"Ġexha":7668,"osely":7669,"Ġappears":7670,"Ġsla":7671,"Ġahhah":7672,"Ġnicely":7673,"Ġelev":7674,"azz":7675,"Ġ184":7676,"Ġexplan":7677,"Ġservants":7678,"Ġmedia":7679,"yler":7680,"Ġsuffering":7681,"ĠMiddle":7682,"Ġdreadful":7683,"ufact":7684,"ĠIrish":7685,"ĠScotland":7686,"ĠAylmer":7687,"uing":7688,"Ġwings":7689,"ĠSik":7690,"ĠBY":7691,"Ġstole":7692,"Ġashamed":7693,"ĠDamn":7694,"ĠOak":7695,"ĠOhio":7696,"Ġsauce":7697,"Ġconver":7698,"angers":7699,"Ġune":7700,"icted":7701,"Ġcontain":7702,"hmm":7703,"Ġfoods":7704,"Ġdisappear":7705,"Ġlimited":7706,"arrass":7707,"ĠBatala":7708,"Ġsacr":7709,"Äģ":7710,"ĠYet":7711,"ĠPerson":7712,"Ġjoint":7713,"Ġframe":7714,"ĠJac":7715,"Ġgray":7716,"Ġaffection":7717,"hedral":7718,"Ġwarning":7719,"Ġ183":7720,"Ġ1982":7721,"Ġexplos":7722,"ĠProd":7723,"ĠGeography":7724,"Ġillness":7725,"Ġdisappointed":7726,"ĠBroad":7727,"Ġconnection":7728,"Ġphysical":7729,"vania":7730,"RRR":7731,"ĠLabour":7732,"ĠWednesday":7733,"ĠLincoln":7734,"26":7735,"isl":7736,"Ġdom":7737,"idays":7738,"ĠOH":7739,"umper":7740,"ĠRus":7741,"aki":7742,"emic":7743,"Ġpride":7744,"Ġwaters":7745,"Ġbug":7746,"Ġnights":7747,"ĠTHEY":7748,"ĠMmm":7749,"sname":7750,"JJJ":7751,"Ġextremely":7752,"Ġobliged":7753,"cles":7754,"rots":7755,"Ġbay":7756,"Ġfits":7757,"Ġlamp":7758,"ĠSoo":7759,"ĠSud":7760,"ĠSub":7761,"Ġanal":7762,"ĠNet":7763,"resp":7764,"Ġpeep":7765,"achus":7766,"inned":7767,"ĠMissouri":7768,"ĠHarvey":7769,"Ġloft":7770,"Ġsales":7771,"Ġrevolution":7772,"ĠKatie":7773,"Ġfocus":7774,"Ġstroke":7775,"Ġplatform":7776,"ĠTurkish":7777,"sylvania":7778,"IES":7779,"VID":7780,"uan":7781,"onge":7782,"Ġfederal":7783,"anks":7784,"iculous":7785,"Ġwhoo":7786,"ript":7787,"Ġaband":7788,"aka":7789,"berries":7790,"Ġunable":7791,"ĠVill":7792,"Ġscary":7793,"Ġlanding":7794,"uesday":7795,"ĠTrump":7796,"umbling":7797,"Ġstarring":7798,"Ġrolled":7799,"Ġbasis":7800,"Ġpresidential":7801,"ĠBertha":7802,"sur":7803,"Ġtank":7804,"Ġwo":7805,"enes":7806,"Ġlink":7807,"ĠAy":7808,"ĠSophie":7809,"ĠBall":7810,"ĠDear":7811,"unior":7812,"istics":7813,"orden":7814,"ĠIsa":7815,"Ġpointing":7816,"ĠGran":7817,"ĠTele":7818,"Ġcalcul":7819,"Ġprograms":7820,"Ġrubber":7821,"ĠWilson":7822,"ĠCampbell":7823,"ĠPacific":7824,"Mar":7825,"ez":7826,"uj":7827,"orious":7828,"Ġnest":7829,"Ġincl":7830,"aghetti":7831,"Ġflood":7832,"Ġbeds":7833,"Ġconscious":7834,"who":7835,"ĠPhilipp":7836,"Ġwooden":7837,"Ġoccupied":7838,"Ġtidy":7839,"bi":7840,"vy":7841,"Ġcakes":7842,"ingle":7843,"Ġpipe":7844,"Ġthirst":7845,"ĠSC":7846,"ĠBad":7847,"ĠRich":7848,"Ġroar":7849,"Ġkeen":7850,"Ġsched":7851,"Ġcontains":7852,"whines":7853,"Ġtreasure":7854,"Ġbreathing":7855,"Ġsystems":7856,"Ġadmir":7857,"Ġtunnel":7858,"ĠLieutenant":7859,"GG":7860,"Ġsam":7861,"omi":7862,"Ġbeans":7863,"Ġfork":7864,"ĠPot":7865,"ĠPra":7866,"ĠJoy":7867,"ĠEst":7868,"ĠKy":7869,"ĠVaud":7870,"mann":7871,"Ġmustn":7872,"Ġfunction":7873,"Ġsounded":7874,"Ġdraws":7875,"Ġstudies":7876,"Ġprompt":7877,"Ġcoloring":7878,"ĠPhilip":7879,"Ġbanks":7880,"Ġadventures":7881,"ILL":7882,"]...":7883,"pot":7884,"Ġwoo":7885,"Ġcoun":7886,"lle":7887,"Ġgrey":7888,"Ġhills":7889,"ĠMosely":7890,"ĠWOR":7891,"ĠCy":7892,"ĠDie":7893,"ĠDod":7894,"Ġcomed":7895,"ĠUP":7896,"onder":7897,"Ġguests":7898,"icture":7899,"Ġcrab":7900,"rows":7901,"Ġsets":7902,"Ġpresents":7903,"Ġreality":7904,"ologist":7905,"ĠAbs":7906,"Ġattacks":7907,"ervation":7908,"Ġarrival":7909,"Ġeventually":7910,"Ġembarrass":7911,"ongratulations":7912,"becca":7913,"ĠPennsylvania":7914,"Go":7915,"Mr":7916,"Ġtin":7917,"Ġwoke":7918,"Ġsigh":7919,"Ġgreet":7920,"alo":7921,"Ġrent":7922,"sell":7923,"amma":7924,"Ġhers":7925,"ĠJUST":7926,"ardo":7927,"Ġspots":7928,"ĠKir":7929,"Ġunion":7930,"Ġchase":7931,"TED":7932,"Ġdraft":7933,"Ġdollar":7934,"Ġcountryside":7935,"Ġdistricts":7936,"Ġgolden":7937,"Ġshouting":7938,"Ġbullet":7939,"Ġnetwork":7940,"Ġtemperature":7941,"Ġdesperate":7942,"Ġcongressional":7943,"\").":7944,"gro":7945,"Ġsin":7946,"iser":7947,"Ġgle":7948,"ĠAri":7949,"uties":7950,"ĠMobile":7951,"ĠBear":7952,"Ġseized":7953,"umph":7954,"Ġmanufact":7955,"alking":7956,"Ġcompos":7957,"Ġcommitted":7958,"Ġdistant":7959,"pected":7960,"Ġï¿½ï¿½ï¿½":7961,"ORE":7962,"Ġsubs":7963,"Ġidiot":7964,"Ġrefers":7965,"Ġpossession":7966,"Ġsteel":7967,"Ġvisited":7968,"Ġload":7969,"Ġkingdom":7970,"Ġwhisper":7971,"ĠRichards":7972,"OOD":7973,"Ġattended":7974,"ĠCaroline":7975,"Ġfreedom":7976,"Ġresources":7977,"Ġpregnant":7978,"Ġinhabitants":7979,"mod":7980,"Ġwicked":7981,"Ġmoo":7982,"Ġfo":7983,"etts":7984,"ĠTall":7985,"ĠSn":7986,"ĠDog":7987,"unning":7988,"olk":7989,"igator":7990,"ements":7991,"ective":7992,"Ġsecure":7993,"Ġscrap":7994,"Ġacted":7995,"onscious":7996,"Ġslipp":7997,"Ġboyfriend":7998,"Ġdetails":7999,"ĠConfeder":8000,"Ġrestaurant":8001,"Look":8002,"dale":8003,"Ġmaid":8004,"Ġpressed":8005,"ati":8006,"Ġheight":8007,"ĠHang":8008,"ĠCe":8009,"Ġanger":8010,"Ġnoted":8011,"ĠĠĠ":8012,"ques":8013,"Ġexped":8014,"Ġbrace":8015,"Ġdrag":8016,"ibly":8017,"boat":8018,"Ġpoorly":8019,"Ġarrive":8020,"ĠCheck":8021,"Ġviolence":8022,"Ġtechnology":8023,"Ġbroadcast":8024,"squeals":8025,"ĠRepresentatives":8026,"ĠJethro":8027,"Gr":8028,"kia":8029,"onies":8030,"ĠTuesday":8031,"Ġseated":8032,"Ġash":8033,"ĠField":8034,"elling":8035,"Ġdeer":8036,"Ġconference":8037,"ĠWere":8038,"Ġflung":8039,"hens":8040,"Ġfuneral":8041,"char":8042,"ĠMean":8043,"ĠCarter":8044,"ĠCHAR":8045,"IDS":8046,"Ġteachers":8047,"volution":8048,"Ġhousing":8049,"Ġwhale":8050,"icycle":8051,"ĠNavy":8052,"ĠStanley":8053,"Ġpilot":8054,"Ġroyal":8055,"Michael":8056,"mus":8057,"Ġwishes":8058,"ndy":8059,"Ġgri":8060,"ĠTeddy":8061,"ĠSwe":8062,"Ġrode":8063,"ieved":8064,"ilst":8065,"ĠLA":8066,"ĠJung":8067,"abel":8068,"ĠEs":8069,"ivered":8070,"agle":8071,"Ġgrat":8072,"Ġgrape":8073,"Ġdrum":8074,"Ġcharges":8075,"Ġtriangle":8076,"Ġinstruct":8077,"Ġlesson":8078,"Ġ1969":8079,"Ġmiserable":8080,"Ġroute":8081,"Ġtissue":8082,"mission":8083,"ught":8084,"Ġbore":8085,"Ġbul":8086,"ito":8087,"Ġmister":8088,"inging":8089,"Ġpit":8090,"arian":8091,"ĠTok":8092,"ĠAC":8093,"Ġrejo":8094,"Ġkil":8095,"eau":8096,"Ġseasons":8097,"urg":8098,"ĠName":8099,"Ġshy":8100,"orted":8101,"Ġintake":8102,"ods":8103,"Ġbackwards":8104,"ĠStr":8105,"Ġdisplay":8106,"Ġremaining":8107,"Ġfinancial":8108,"Ġbushes":8109,"Ġretire":8110,"Ġpotty":8111,"Ġconduct":8112,"Ġbuddy":8113,"Ġprinci":8114,"ĠBurton":8115,"glas":8116,"Ġbubbles":8117,"ĠSusan":8118,"Ġpronoun":8119,"cest":8120,"draw":8121,"song":8122,"Ġeth":8123,"rets":8124,"Ġba":8125,"Ġitem":8126,"also":8127,"ĠMall":8128,"ĠBus":8129,"ĠOs":8130,"ĠLew":8131,"Ġnep":8132,"Ġexceed":8133,"ague":8134,"Ġamuse":8135,"Ġmighty":8136,"Ġ35":8137,"Ġcurtain":8138,"whispered":8139,"Ġauthorities":8140,"Ġloudly":8141,"ĠPrefecture":8142,"Ġinterrupted":8143,"ĠChildsname":8144,"Ġvehicle":8145,"achusetts":8146,"dam":8147,"fs":8148,"hu":8149,"Ġbatt":8150,"Ġbeep":8151,"Ġracing":8152,"ĠCook":8153,"iller":8154,"ĠPink":8155,"ĠPoint":8156,"inder":8157,"Ġjustice":8158,"aste":8159,"Ġintellig":8160,"ĠThough":8161,"Ġguid":8162,"Ġbaba":8163,"Ġimpl":8164,"Ġmonkeys":8165,"Ġenthus":8166,"Ġminds":8167,"Ġ1981":8168,"Ġ1976":8169,"Ġtremb":8170,"Ġdressing":8171,"Ġlaun":8172,"Ġlimit":8173,"ĠJersey":8174,"Ġaffairs":8175,"Ġnearest":8176,"Ġdebate":8177,"ii":8178,"Ġcries":8179,"Ġgon":8180,"acity":8181,"Ġrev":8182,"Ġconcl":8183,"ptions":8184,"Ġcarpet":8185,"new":8186,"rub":8187,"lessly":8188,"Ġapproached":8189,"Ġpotato":8190,"Ġclimate":8191,"Ġconsiderable":8192,"Ġsnakes":8193,"Ġbenefit":8194,"Ġsqueeze":8195,"Ġappropriate":8196,"Ġnephew":8197,"num":8198,"ĠIre":8199,"acious":8200,"Ġforb":8201,"irts":8202,"Ġgoat":8203,"ilight":8204,"ĠEnd":8205,"Ġconvin":8206,"venge":8207,"ĠThursday":8208,"Ġscored":8209,"âĻ«":8210,"Ġsupply":8211,"Ġattached":8212,"Ġconsist":8213,"ĠLeon":8214,"Ġroads":8215,"ĠMcC":8216,"Ġringing":8217,"ĠDora":8218,"Ġthreatened":8219,"Ġblew":8220,"Because":8221,"ĠRahul":8222,"wick":8223,"ĠâĻ«":8224,"Ġward":8225,"Ġgain":8226,"Ġrude":8227,"Ġstack":8228,"ĠHea":8229,"ĠCas":8230,"ĠLO":8231,"ĠLiber":8232,"rial":8233,"estion":8234,"Ġerr":8235,"ĠAndre":8236,"pless":8237,"Ġunif":8238,"izz":8239,"ĠSociety":8240,"Ġhappiness":8241,"Ġglanced":8242,"Ġ36":8243,"Ġbegun":8244,"ooray":8245,"Ġexchan":8246,"Ġ1984":8247,"ĠPrin":8248,"Ã¡n":8249,"Ġsolid":8250,"ĠONE":8251,"vocalization":8252,"sembly":8253,"ĠBiography":8254,"27":8255,"IAN":8256,"til":8257,"Ġsout":8258,"Ġcups":8259,"Ġhay":8260,"ĠRh":8261,"Ġintense":8262,"Ġblows":8263,"Ġdisag":8264,"Ġappeal":8265,"ĠNews":8266,"Ġcuts":8267,"Ġconfess":8268,"Ġofficially":8269,"Ġcompeted":8270,"Ġtorn":8271,"Ġridiculous":8272,"Ġconnected":8273,"Ġmultip":8274,"Ġshelter":8275,"Ġhelicopter":8276,"eys":8277,"takes":8278,"Ġlou":8279,"ĠHoly":8280,"alls":8281,"Ġlif":8282,"ĠDoub":8283,"ĠJosh":8284,"Ġdele":8285,"inkle":8286,"akin":8287,"Ġspaghetti":8288,"ĠKar":8289,"ART":8290,"Ġteaching":8291,"Ġumbre":8292,"Ġ2023":8293,"ĠShit":8294,"Ġconfl":8295,"Ġemot":8296,"Ġstarred":8297,"Ġcondu":8298,"ĠĠĠĠĠĠĠ":8299,"Ġmunicipal":8300,"AME":8301,"Ġnecessarily":8302,"Ġgenus":8303,"Ġdelightful":8304,"Ġinjured":8305,"Ġmurdered":8306,"ĠWinnie":8307,"wide":8308,"Ġtale":8309,"Ġbid":8310,"Ġlt":8311,"asters":8312,"ĠAw":8313,"ĠMod":8314,"ader":8315,"Ġdoctors":8316,"Ġugh":8317,"Ġrag":8318,"Ġstamp":8319,"ĠHan":8320,"ĠHond":8321,"ĠPL":8322,"ĠPope":8323,"ĠFle":8324,"Ġmyth":8325,"Ġplot":8326,"ĠNokia":8327,"Ġguitar":8328,"clears":8329,"ĠAtt":8330,"Ġmmm":8331,"Ġearned":8332,"Ġimportance":8333,"ĠShall":8334,"Ġsupported":8335,"Ġcosts":8336,"Ġcheeky":8337,"Ġenvironmental":8338,"ĠWelcome":8339,"DEB":8340,"ĠDouglas":8341,"ĠMassachusetts":8342,"Ġcrocodile":8343,"hum":8344,"rr":8345,"wan":8346,"heim":8347,"Ġdough":8348,"Ġdull":8349,"oni":8350,"anas":8351,"ĠTyler":8352,"ĠAF":8353,"Ġreward":8354,"ilton":8355,"Ġmystery":8356,"Ġprospect":8357,"Ġtroubles":8358,"Ġpecul":8359,"Ġswept":8360,"Ġpassage":8361,"ussy":8362,"Ġ80":8363,"ĠâĢĺ_":8364,"ĠWithout":8365,"ĠXV":8366,"Ġclimbed":8367,"Ġlevels":8368,"Ġprincip":8369,"hetic":8370,"ĠWinter":8371,"LIN":8372,"Ġtha":8373,"inity":8374,"Ġwars":8375,"Ġwreck":8376,"erg":8377,"Ġfetch":8378,"Ġtools":8379,"ĠTre":8380,"vering":8381,"ĠRom":8382,"ĠEh":8383,"ĠKo":8384,"Ġclip":8385,"text":8386,"Ġremove":8387,"shine":8388,"ĠChristopher":8389,"Ġimpression":8390,"Ġhundreds":8391,"Ġbearing":8392,"cription":8393,"Ġkissing":8394,"Ġbags":8395,"Ġshops":8396,"Ġviolent":8397,"ĠScholarship":8398,"ĠIreland":8399,"EP":8400,"Ġtack":8401,"Ġcuddle":8402,"Ġmart":8403,"Ġded":8404,"Ġtox":8405,"ĠMA":8406,"ĠMir":8407,"chi":8408,"Ġnoble":8409,"ĠLang":8410,"Ġleather":8411,"Ġproof":8412,"Ġprem":8413,"Ġbuying":8414,"phy":8415,"Ġchart":8416,"rett":8417,"Ġpenny":8418,"Ġ1964":8419,"Ġexpecting":8420,"ĠKeith":8421,"Ġactivities":8422,"Ġseventeen":8423,"pretend":8424,"ĠFilm":8425,"Ġchampionship":8426,"Ġmysterious":8427,"Ġtempt":8428,"had":8429,"asm":8430,"ĠAren":8431,"ĠFRO":8432,"Ġpros":8433,"Ġfever":8434,"Ġundert":8435,"Ġcompared":8436,"Ġswear":8437,"Ġcolored":8438,"Ã³n":8439,"Ġsplash":8440,"ĠIslands":8441,"Ġsolemn":8442,"ĠAbsolutely":8443,"500":8444,"bor":8445,"gal":8446,"works":8447,"Ġaer":8448,"Ġbac":8449,"Ġcord":8450,"Ġfake":8451,"Ġpud":8452,"ĠWant":8453,"Ġ\"\"":8454,"andy":8455,"ĠJam":8456,"Ġwanting":8457,"ĠKate":8458,"ĠAndrew":8459,"Ġunhappy":8460,"ĠBrid":8461,"Ġstopping":8462,"inson":8463,"umpy":8464,"Ġsnap":8465,"ĠShar":8466,"Ġcapture":8467,"ribly":8468,"Ġscreaming":8469,"ĠVictoria":8470,"Ġincredible":8471,"Ġphilos":8472,"ĠMeanwhile":8473,"name":8474,"sl":8475,"Ġwing":8476,"Ġsons":8477,"refer":8478,"Ġcage":8479,"Ġhoo":8480,"Ġhits":8481,"ĠMem":8482,"ifts":8483,"ĠGre":8484,"ourse":8485,"oli":8486,"Ġgettin":8487,"Ġfeather":8488,"Ġunex":8489,"Ġwrites":8490,"Ġchildhood":8491,"brush":8492,"ertainly":8493,"Ġ1968":8494,"uki":8495,"Ġ1930":8496,"ĠKevin":8497,"ĠEmily":8498,"Ġbelonged":8499,"Ġlocation":8500,"ALLY":8501,"Ġassistant":8502,"ĠJessica":8503,"Ġextended":8504,"Ġargument":8505,"wers":8506,"nda":8507,"Ġdies":8508,"ington":8509,"Ġpitched":8510,"utt":8511,"ĠSong":8512,"ĠWales":8513,"rog":8514,"ifted":8515,"ctions":8516,"umin":8517,"Ġshining":8518,"Ġalp":8519,"Ġprince":8520,"Ġunits":8521,"ĠVic":8522,"Ġpole":8523,"ipur":8524,"Ġcommander":8525,"ĠDef":8526,"Ġreturning":8527,"ĠBenj":8528,"ĠEliot":8529,"Ġapproaching":8530,"ĠPoland":8531,"Ġcloses":8532,"Ġtempor":8533,"Ġportion":8534,"Ġdiscussion":8535,"Ġlemon":8536,"Ġcitizens":8537,"ĠTigger":8538,"dr":8539,"gment":8540,"uals":8541,"Ġyah":8542,"Ġyup":8543,"Ġlic":8544,"ĠThing":8545,"imately":8546,"ĠRon":8547,"Ġuseless":8548,"ĠUnt":8549,"Ġshapes":8550,"pton":8551,"teacher":8552,"Ġchallen":8553,"Ġchim":8554,"Ġdisg":8555,"Ġcomplex":8556,"Ġreturns":8557,"Ġplanet":8558,"Ġ1975":8559,"Ġtouching":8560,"Ġdawn":8561,"Ġcreatures":8562,"Ġbasic":8563,"ĠSergeant":8564,"Ġbasketball":8565,"Ġprimary":8566,"Ġcereal":8567,"ĠReliance":8568,"ĠCastle":8569,"ĠFrancisco":8570,"Ġsignificant":8571,"28":8572,"cr":8573,"hor":8574,"hole":8575,"iat":8576,"shar":8577,"uable":8578,"Ġcateg":8579,"ĠMi":8580,"ĠFif":8581,"rah":8582,"Ġfee":8583,"ANK":8584,"Ġcomposed":8585,"Ġhelpless":8586,"ĠHoward":8587,"Ġattitude":8588,"ĠRebecca":8589,"Ġservant":8590,"fortable":8591,"Ġmerged":8592,"Ġvisitors":8593,"Ġtreatment":8594,"Ġprisoners":8595,"sniffs":8596,"ĠChampionships":8597,"Ġdegrees":8598,"ĠKorean":8599,"Ġadopted":8600,"keeper":8601,"Will":8602,"breat":8603,"dra":8604,"sar":8605,"Ġawards":8606,"Ġarose":8607,"Ġsought":8608,"Ġfestival":8609,"ĠId":8610,"ĠAut":8611,"Ġrivers":8612,"Ġstations":8613,"Ġgoals":8614,"unte":8615,"ĠGall":8616,"earch":8617,"Ġblast":8618,"Ġresident":8619,"Ġsites":8620,"Ġdrank":8621,"Ġconfused":8622,"Ġsatisfaction":8623,"stitution":8624,"Ġmuttered":8625,"ĠABOUT":8626,"ennessee":8627,"Ġumbrella":8628,"belt":8629,"cur":8630,"foot":8631,"gabr":8632,"mony":8633,"nut":8634,"nam":8635,"toy":8636,"Ġaft":8637,"Ġwolf":8638,"real":8639,"Ġbishop":8640,"asion":8641,"ĠMR":8642,"ĠMoon":8643,"imum":8644,"Ġrefe":8645,"Ġreview":8646,"Ġstout":8647,"Ġancest":8648,"ĠNHL":8649,"ĠGina":8650,"ighed":8651,"Ġspill":8652,"ĠKay":8653,"Ġchuck":8654,"Ġcrap":8655,"Ġhorror":8656,"Ġsticking":8657,"Ġpainted":8658,"Ġ1977":8659,"Ġprovin":8660,"Ġillust":8661,"ĠAustria":8662,"Ġexperiment":8663,"Ġpolicies":8664,"Ġislands":8665,"Ġgrowth":8666,"Inter":8667,"hemat":8668,"Ġarchite":8669,"Ġphrase":8670,"referring":8671,"Ex":8672,"door":8673,"top":8674,"Ġaah":8675,"Ġmac":8676,"Ġmental":8677,"Ġgal":8678,"ĠTennessee":8679,"ĠSk":8680,"Ġreference":8681,"Ġstiff":8682,"ĠChat":8683,"ĠDal":8684,"ĠPur":8685,"ĠPRO":8686,"ĠGreg":8687,"ophy":8688,"ĠForm":8689,"riger":8690,"ĠHend":8691,"uled":8692,"agement":8693,"Ġchamber":8694,"theless":8695,"Ġcharged":8696,"Ġfactory":8697,"196":8698,"Ġ1974":8699,"Ġconstant":8700,"ĠDuke":8701,"ĠAtlantic":8702,"sharp":8703,"45":8704,"GR":8705,"KT":8706,"san":8707,"erry":8708,"Ġdining":8709,"onation":8710,"Ġnick":8711,"Ġnonsense":8712,"ĠTop":8713,"ĠSever":8714,"Ġdonkey":8715,"ĠGarth":8716,"geun":8717,"IND":8718,"apers":8719,"Ġvig":8720,"Ġbrick":8721,"ysis":8722,"Ġchin":8723,"Ġguards":8724,"ogne":8725,"Ġscript":8726,"Ġheaded":8727,"Ġ33":8728,"ĠMayor":8729,"Ġinstit":8730,"Ġsteam":8731,"Ġtomato":8732,"igging":8733,"Ġadmitted":8734,"Ġkicking":8735,"Ġaudience":8736,"Ġproceeded":8737,"Ġaffected":8738,"ĠJewish":8739,"Ġsenior":8740,"ĠInstead":8741,"ĠLewis":8742,",...":8743,"Have":8744,"dad":8745,"itable":8746,"Ġpist":8747,"Ġere":8748,"ĠCreeks":8749,"ĠPip":8750,"Ġjelly":8751,"ĠGun":8752,"ĠLy":8753,"ĠEastern":8754,"Ġven":8755,"Ġlegend":8756,"Ġactions":8757,"Ġpolite":8758,"Ġthankful":8759,"Ġanimated":8760,"Ġfacts":8761,"ĠZoe":8762,"Ġsticky":8763,"Ġdiscover":8764,"Ġfriendship":8765,"Ġconfident":8766,"Ġ70":8767,"ĠPolish":8768,"Ġcommonly":8769,"Ġhealthy":8770,"Ġholidays":8771,"Ġintroduce":8772,"Ġvotes":8773,"ĠUkraine":8774,"Ġconcluded":8775,"Ġcigaret":8776,"ĠBenjamin":8777,"mouth":8778,"pill":8779,"when":8780,"Ġoy":8781,"Ġcater":8782,"Ġdirt":8783,"Ġnit":8784,"imp":8785,"aman":8786,"Ġstares":8787,"ĠCivil":8788,"ifying":8789,"ĠNich":8790,"Ġnowhere":8791,"Ġexact":8792,"Ġintention":8793,"ints":8794,"Ġcompound":8795,"Ġbuzz":8796,"Ġobtained":8797,"ĠJohnny":8798,"Ġwinds":8799,"Ġimpress":8800,"Ġshortly":8801,"Ġleads":8802,"Ġdefence":8803,"Ġloads":8804,"ĠJeann":8805,"Ġpacked":8806,"Ġdescribe":8807,"Ġpossibility":8808,"Ġutterance":8809,"Ġfurniture":8810,"Ġmerely":8811,"Ġliquid":8812,"Ġbastard":8813,"Rat":8814,"Un":8815,"cow":8816,"egr":8817,"erk":8818,"Ġdug":8819,"Ġdumb":8820,"amas":8821,"ĠGET":8822,"ĠFel":8823,"ĠJos":8824,"ĠEN":8825,"hang":8826,"Ġclay":8827,"ĠIntern":8828,"arson":8829,"Ġelement":8830,"Ġassured":8831,"Ã©e":8832,"Ġ1973":8833,"Ġlover":8834,"Ġcowboy":8835,"Ġmistaken":8836,"Ġpackage":8837,"Ġkicked":8838,"Ġnapkin":8839,"Ġhistorical":8840,"Ġdemanded":8841,"Ġconfirmed":8842,"ĠService":8843,"Ġunexpected":8844,"29":8845,"De":8846,"four":8847,"oise":8848,"Ġtropical":8849,"inem":8850,"rem":8851,"Ġmast":8852,"ĠIF":8853,"ĠBir":8854,"Ġstable":8855,"ĠCind":8856,"arts":8857,"Ġ(,":8858,"high":8859,"ĠChick":8860,"Ġkindness":8861,"Ġnearby":8862,"ĠExactly":8863,"Ġreaching":8864,"Ġkisses":8865,"Ġorganized":8866,"ICE":8867,"Ġcomplain":8868,"Ġseparated":8869,"Ġphoto":8870,"Ġrailway":8871,"Ġuncomfortable":8872,"Ġpenguin":8873,"Mother":8874,"bin":8875,"asped":8876,"Ġhal":8877,"ĠAP":8878,"Ġrider":8879,"ĠWacker":8880,"Ġstor":8881,"eav":8882,"Ġwhilst":8883,"ĠPa":8884,"ĠPubl":8885,"ĠEver":8886,"ĠHee":8887,"eling":8888,"Ġteen":8889,"Ġpoem":8890,"gger":8891,"Ġdistur":8892,"ĠArgent":8893,"Ġsurgery":8894,"Ġaddressed":8895,"ĠAdd":8896,"Ġconfusion":8897,"ĠConst":8898,"Ġmidnight":8899,"Ġsumm":8900,"Ġclasses":8901,"Ġzero":8902,"ĠGrandpa":8903,"Ġclosing":8904,"Ġmagnetic":8905,"Ġeconomy":8906,"Ġcheerful":8907,"Ġresolution":8908,"ĠCOVID":8909,"ĠDetective":8910,"Ġathlet":8911,"Ġgrapes":8912,"UP":8913,"bish":8914,"des":8915,"will":8916,"Ġsadd":8917,"Ġhooray":8918,"Ġthumb":8919,"Ġreign":8920,"ĠBank":8921,"ĠWalk":8922,"Ġstated":8923,"iev":8924,"umption":8925,"Ġplates":8926,"Ġspider":8927,"Ġpreviously":8928,"Ġlasted":8929,"ĠMaria":8930,"ĠChap":8931,"oked":8932,"Ġabsence":8933,"Ġphotograph":8934,"ĠSHE":8935,"NNN":8936,"Ġinstrument":8937,"Ġwarriors":8938,"gbark":8939,"Ġdaught":8940,"eness":8941,"ettle":8942,"ĠMust":8943,"ĠBA":8944,"entine":8945,"ami":8946,"ĠHoll":8947,"ĠHung":8948,"ĠHER":8949,"ĠNOW":8950,"ĠOffic":8951,"Ġfrag":8952,"ATE":8953,"ĠKas":8954,"ĠKath":8955,"ĠKaren":8956,"places":8957,"Ġunivers":8958,"into":8959,"Ġwrit":8960,"enses":8961,"OUR":8962,"Ġhurting":8963,"Ġalongside":8964,"ĠSean":8965,"ĠBlood":8966,"oubled":8967,"Ġzeb":8968,"THING":8969,"ĠColin":8970,"coming":8971,"Ġmerry":8972,"Ġstatus":8973,"Ġsexual":8974,"ĠMerrim":8975,"ĠFreder":8976,"Ġextraord":8977,"ĠHyun":8978,"Ġdepends":8979,"Ġlaunched":8980,"HE":8981,"oir":8982,"Â°":8983,"inini":8984,"arant":8985,"ĠToo":8986,"utions":8987,"ĠBour":8988,"Ġseas":8989,"ĠNana":8990,"andra":8991,"ĠStart":8992,"Ġroast":8993,"Ġens":8994,"ava":8995,"ĠVas":8996,"Ġstrict":8997,"ĠArch":8998,"Ġreduced":8999,"ĠGrant":9000,"Ġsneak":9001,"Ġdecent":9002,"Ġhumans":9003,"Ġ1957":9004,"Ġsafely":9005,"ĠEmma":9006,"ĠSeries":9007,"Ġfeeding":9008,"Ġgradually":9009,"Ġbattery":9010,"Ġvegetables":9011,"Ġcommercial":9012,"ĠDirector":9013,"ĠGordon":9014,"Wh":9015,"crying":9016,"tes":9017,"uy":9018,"Ġsank":9019,"ori":9020,"orpor":9021,"Ġbeard":9022,"ĠAvenue":9023,"utter":9024,"utation":9025,"Ġrage":9026,"Ġstared":9027,"Ġseal":9028,"cement":9029,"ĠLit":9030,"---":9031,"Ġtray":9032,"asses":9033,"Ġchip":9034,"Ġcounting":9035,"Ġdistingu":9036,"Ġmarch":9037,"Ġmidst":9038,"Ġburden":9039,"Ġconcer":9040,"Ġexception":9041,"Ġneighbour":9042,"Ġpunishment":9043,"Ġceremony":9044,"Ġcrawl":9045,"Ġinvestigation":9046,"habet":9047,"Ġwrapped":9048,"ĠSudden":9049,"?]":9050,"CLA":9051,"FF":9052,"Ġbars":9053,"itter":9054,"itors":9055,"ĠIV":9056,"orial":9057,"Ġped":9058,"Ġpace":9059,"Ġpiss":9060,"aro":9061,"arrondissement":9062,"Ġwebs":9063,"kel":9064,"acco":9065,"ĠBattle":9066,"ĠWes":9067,"ĠNone":9068,"ĠFree":9069,"ĠFederal":9070,"ĠKong":9071,"Ġenqu":9072,"Ġprey":9073,"Ġchrist":9074,"Ġasks":9075,"ultural":9076,"Ġcapable":9077,"Ġtrained":9078,"Ġevol":9079,"hammad":9080,"Ġsunshine":9081,"ĠShagbark":9082,"Ġmercy":9083,"ĠWHO":9084,"whisper":9085,"Ġvolunte":9086,"Ġnaturally":9087,"Ġaccompan":9088,"ĠCorpor":9089,"Ġfoolish":9090,"Ġeconomic":9091,"ĠSimon":9092,"Ġresponded":9093,"ĠCareer":9094,"ĠTokyo":9095,"cat":9096,"gain":9097,"mosp":9098,"Ã¦":9099,"Ġ:":9100,"Ġtu":9101,"Ġwret":9102,"escue":9103,"Ġgest":9104,"Ġthief":9105,"Ġbend":9106,"ĠBird":9107,"ĠDream":9108,"Ġje":9109,"ĠLine":9110,"geon":9111,"ĠRen":9112,"Ġvoy":9113,"Ġvirt":9114,"aved":9115,"cipl":9116,"Ġendeav":9117,"Ġobst":9118,"ĠGram":9119,"Ġlisted":9120,"Ġreflect":9121,"Ġ1966":9122,"Ġopera":9123,"Ġgods":9124,"Ġtesting":9125,"Ġlabel":9126,"Ġhydro":9127,"Ġprepare":9128,"Ġoccasionally":9129,"Ġsurrounded":9130,"ĠBarbara":9131,"Ġpeculiar":9132,"One":9133,"lie":9134,"mont":9135,"pos":9136,"pret":9137,"two":9138,"uzz":9139,"Ġtables":9140,"Ġhired":9141,"Ġholy":9142,"amation":9143,"ĠCher":9144,"ĠRick":9145,"Ġbob":9146,"ĠKi":9147,"itei":9148,"ĠValley":9149,"Ġsmoking":9150,"manRat":9151,"ĠAlger":9152,"Ġexpressed":9153,"Ġopposed":9154,"Ġclothing":9155,"Ġ1940":9156,"Ġtickets":9157,"Ġorganis":9158,"ĠSupp":9159,"Ġbanging":9160,"Ġlabor":9161,"Ġgarbage":9162,"Ġepisodes":9163,"Ġexistence":9164,"Ġcycl":9165,"Ġtraditional":9166,"NewmanRat":9167,"quarters":9168,"ĠSikander":9169,"ĠUntil":9170,"Interviews":9171,"ĠHenderson":9172,"NewmanRatner":9173,"48":9174,"99":9175,";\"":9176,"Le":9177,"hn":9178,"Ġax":9179,"Ġwww":9180,"Ġoven":9181,"Ġpad":9182,"Ġginger":9183,"ĠSP":9184,"ĠMAR":9185,"adies":9186,"ĠCad":9187,"ĠCop":9188,"ĠPun":9189,"ĠPower":9190,"Ġjolly":9191,"ĠGame":9192,"ĠLOOK":9193,"agger":9194,"Ġages":9195,"ĠKr":9196,"Ġquant":9197,"Ġunlike":9198,"ĠBrook":9199,"ĠForce":9200,"Ġ1971":9201,"Ġ1978":9202,"ĠBlake":9203,"Ġeditor":9204,"ronic":9205,"Ġdevice":9206,"ĠLuke":9207,"Ġbillion":9208,"ĠAnnie":9209,"Ġarticle":9210,"Ġdaughters":9211,"cury":9212,"dog":9213,"mate":9214,"oan":9215,"vior":9216,"yy":9217,"Ġ/":9218,"Ġbeating":9219,"ĠMister":9220,"iments":9221,"ĠCT":9222,"ĠDever":9223,"ĠFollow":9224,"geous":9225,"ĠYoun":9226,"osy":9227,"Ġcomin":9228,"Ġcomments":9229,"Ġtrace":9230,"ĠUK":9231,"Ġcarrots":9232,"Ġthrust":9233,"Ġtryin":9234,"ĠBrooke":9235,"Ġdragged":9236,"Ġnumerous":9237,"umpty":9238,"ĠSeven":9239,"Ġdiscovery":9240,"ĠJapazy":9241,"Ġparrot":9242,"Ġchecking":9243,"Ġquarters":9244,"mitage":9245,"Ġproducts":9246,"ocracy":9247,"Ġdivorced":9248,"Ġhippo":9249,"Ġslavery":9250,"LING":9251,"TO":9252,"TLE":9253,"iper":9254,"isp":9255,"etime":9256,"Ġecho":9257,"ĠSem":9258,"ĠBru":9259,"sect":9260,"ĠHERE":9261,"ĠDID":9262,"ĠOt":9263,"ainted":9264,"about":9265,"ĠHead":9266,"eline":9267,"Ġwherever":9268,"ĠInc":9269,"Ġobtain":9270,"Ġobvious":9271,"grunts":9272,"Ġcatches":9273,"Ġwarn":9274,"Ġspeaker":9275,"Ġ1983":9276,"Ġimpact":9277,"Ġinsisted":9278,"hart":9279,"Ġvariety":9280,"Ġattempts":9281,"Ġanxiety":9282,"Ġactivist":9283,"Ġmemories":9284,"Ġbucket":9285,"Ġfantastic":9286,"vant":9287,"Ġsung":9288,"eram":9289,"Ġcreek":9290,"Ġhom":9291,"Ġbegged":9292,"ĠAz":9293,"adu":9294,"ĠBow":9295,"ĠBol":9296,"Ġdece":9297,"Ġconcept":9298,"Ġprime":9299,"Ġpartners":9300,"Ġcommit":9301,"Ġballoons":9302,"ĠIslam":9303,"ĠArmitage":9304,"Ġ180":9305,"bridge":9306,"Ġunderstanding":9307,"Ġinsurance":9308,"Ġ1956":9309,"Ġcrossing":9310,"Ġdirections":9311,"ropol":9312,"Ġruined":9313,"Ġstores":9314,"iji":9315,"ĠFortescue":9316,"Ġarrows":9317,"Ġcottage":9318,"Ġamendment":9319,"ĠLIKE":9320,"ĠIsaac":9321,"ĠFrederick":9322,"ĠYoungeun":9323,"AH":9324,"UE":9325,"bud":9326,"dri":9327,"mat":9328,"Â¶":9329,"Ġtennis":9330,"Ġbum":9331,"Ġyer":9332,"Ġcush":9333,"Ġfare":9334,"Ġfeared":9335,"ĠTW":9336,"ĠBuck":9337,"ĠBBC":9338,"ĠHug":9339,"ĠOR":9340,"Ġhadta":9341,"ĠRoll":9342,"ortheast":9343,"Ġanyhow":9344,"Ġtramp":9345,"Ġchum":9346,"ĠSocial":9347,"Ġmothers":9348,"ĠBridge":9349,"Ġgloves":9350,"Ġsnack":9351,"Ġassume":9352,"ĠMeitei":9353,"Ġkidna":9354,"Ġtremend":9355,"Ġdefense":9356,"Ġstaring":9357,"Ġcatching":9358,"Ġestate":9359,"Ġdeeply":9360,"Ġceased":9361,"Ġdefeat":9362,"Ġrepeat":9363,"Ġsandwiches":9364,"Ġestablish":9365,"Ġgrabs":9366,"Ġstretched":9367,"ĠMoscow":9368,"Ġmigration":9369,"Ġsymbol":9370,"elphia":9371,"respond":9372,"Ġexpedition":9373,"Ġprincipal":9374,"ĠJeannine":9375,"fit":9376,"raspberry":9377,"Ġwigg":9378,"Ġmuseum":9379,"onom":9380,"onic":9381,"Ġlux":9382,"Ġloyal":9383,"Ġnations":9384,"Ġheap":9385,"lets":9386,"ĠMuseum":9387,"ĠYE":9388,"Ġnodd":9389,"Ġfrank":9390,"ĠLau":9391,"ĠRub":9392,"inking":9393,"Ġshared":9394,"ĠVin":9395,"ĠMarion":9396,"ĠAnth":9397,"Ġindign":9398,"Ġassault":9399,"ĠMeg":9400,"Ġawait":9401,"ĠHarrison":9402,"Ġsquad":9403,"Ġstickers":9404,"Ġdrinks":9405,"ĠConference":9406,"Ġvisible":9407,"zech":9408,"Ġstrongly":9409,"Ġ1958":9410,"Ġpretending":9411,"Ġowl":9412,"Ġwaist":9413,"Ġfaithful":9414,"Ġexecutive":9415,"Ġcotton":9416,"Ġapologize":9417,"Ġcomrades":9418,"Ġbracelet":9419,"Ġnodded":9420,"Hey":9421,"giving":9422,"lant":9423,"Ġtops":9424,"Ġpussy":9425,"Ġhamb":9426,"ĠTib":9427,"ĠSport":9428,"ĠSuk":9429,"adelphia":9430,"Ġruff":9431,"unks":9432,"aba":9433,"ĠEaster":9434,"ardens":9435,"ĠUpper":9436,"Ġenorm":9437,"izations":9438,"Ġlongest":9439,"Ġcricket":9440,"Ġrecall":9441,"Ġcleared":9442,"Ġstays":9443,"ĠEduc":9444,"Ġfigured":9445,"ASE":9446,"Ġartists":9447,"THE":9448,"ĠColumb":9449,"ĠAgent":9450,"Ġenjoying":9451,"Ġsolution":9452,"ĠMuslim":9453,"Ġreferring":9454,"Ġnegative":9455,"Ġtouches":9456,"Ġstretch":9457,"ĠSEE":9458,"Ġcriminal":9459,"Ġexplanation":9460,"Ġinstructions":9461,"Ġmultiple":9462,"Ġconflict":9463,"ĠSeveral":9464,"ĠDevering":9465,"47":9466,"away":9467,"cray":9468,"master":9469,"Ġtune":9470,"Ġfires":9471,"Ġpeak":9472,"Ġlob":9473,"Ġlaughter":9474,"Ġthunder":9475,"ĠTam":9476,"ĠAmb":9477,"ĠMicro":9478,"verse":9479,"ĠBor":9480,"Ġangel":9481,"ĠLane":9482,"ĠFame":9483,"Ġcontext":9484,"ĠSoon":9485,"ĠSobr":9486,"ogue":9487,"ISH":9488,"babbling":9489,"Ġexpand":9490,"Ġprovision":9491,"Ġpolitics":9492,"Ġconstantly":9493,"ĠAmong":9494,"Ġscale":9495,"ĠCommission":9496,"Ġlieutenant":9497,"Ġlabour":9498,"Ġprojects":9499,"chers":9500,"oosa":9501,"ĠRandolph":9502,"spector":9503,"Ġawarded":9504,"Ġadministr":9505,"ĠRuthven":9506,"Ġbiscuit":9507,"Ġbiscuits":9508,"Ġconvinced":9509,"Ġcaterpill":9510,"ĠSobrinini":9511,"ECT":9512,"TON":9513,"Ġbored":9514,"Ġfasc":9515,"Ġpoured":9516,"Ġnah":9517,"attered":9518,"ĠTalk":9519,"ĠBoss":9520,"ĠBorden":9521,"ĠCwww":9522,"Ġjingle":9523,"ĠGen":9524,"ĠRIGHT":9525,"rily":9526,"Ġtheme":9527,"agon":9528,"Ġfeature":9529,"ĠThus":9530,"Ġserving":9531,"Ġanswers":9532,"Ġdrawer":9533,"Ġsweat":9534,"Ġ1967":9535,"ĠJackie":9536,"Ġoperations":9537,"ĠEmperor":9538,"Ġincreasing":9539,"holds":9540,"Ġunconscious":9541,"Ġextraordinary":9542,"IP":9543,"Man":9544,"Miss":9545,"Never":9546,"tÃ©":9547,"Ġfaced":9548,"Ġpier":9549,"Ġnails":9550,"ĠManchester":9551,"adal":9552,"Ġult":9553,"Ġanch":9554,"ĠDra":9555,"Ġjus":9556,"estic":9557,"Ġwhoever":9558,"Ġclaimed":9559,"Ġgrief":9560,"Ġresign":9561,"ĠAss":9562,"Ġentering":9563,"Ġpops":9564,"Ġ500":9565,"Ġimpressed":9566,"Ġlands":9567,"URE":9568,"Ġgenerous":9569,"Ġmaintain":9570,"Ġinsist":9571,"ĠRosa":9572,"Ġworthy":9573,"Ġrabbits":9574,"Ġdinosaurs":9575,"ĠChannel":9576,"Ġstrawberry":9577,"Ġassociated":9578,"Ġthoroughly":9579,"Ġbench":9580,"Ġchampion":9581,"Ġalphabet":9582,"ĠNichol":9583,"DAN":9584,"_;":9585,"picture":9586,"Ġtide":9587,"era":9588,"Ġpanc":9589,"Ġhid":9590,"ĠTimes":9591,"ĠMO":9592,"Ġrushing":9593,"ĠPle":9594,"ĠPoo":9595,"Ġyourselves":9596,"ulse":9597,"ela":9598,"Ġgoods":9599,"ĠUt":9600,"ĠStu":9601,"ĠBring":9602,"Ġretreat":9603,"Ġterribly":9604,"Ġkiller":9605,"Ġdecisions":9606,"ĠRevolution":9607,"Ġcryst":9608,"anora":9609,"Ġ1952":9610,"ÃŃa":9611,"ĠFranklin":9612,"ascanora":9613,"Ġsettlements":9614,"Ġbells":9615,"Ġbucks":9616,"ĠAgainst":9617,"Ġrecommend":9618,"ĠPipina":9619,"ĠSuddenly":9620,"80":9621,"BS":9622,"Ġobey":9623,"isk":9624,"Ġdude":9625,"Ġgazed":9626,"Ġnatives":9627,"ĠTay":9628,"ĠMwww":9629,"ĠCzech":9630,"urd":9631,"âĢķ":9632,"ĠPH":9633,"ustomed":9634,"ĠFC":9635,"ĠâĢĶ":9636,"Ġtrap":9637,"wns":9638,"Ġadvert":9639,"ĠAlaska":9640,"Ġowners":9641,"ĠSomebody":9642,"Ġ1943":9643,"ĠMcDon":9644,"Ġbreathe":9645,"Ġabsolute":9646,"Ġcloset":9647,"Ġdefeated":9648,"ĠCoch":9649,"Ġignor":9650,"Ġadditional":9651,"ĠFinally":9652,"Ġcadets":9653,"Perhaps":9654,"ĠDoubs":9655,"35":9656,"VA":9657,"grow":9658,"jac":9659,"Ġbib":9660,"Ġgates":9661,"Ġgabr":9662,"ĠMorning":9663,"ĠHuman":9664,"ĠNumber":9665,"Ġshelf":9666,"ĠLim":9667,"opes":9668,"Ġpee":9669,"ĠInspector":9670,"ĠAlb":9671,"Ġrecovered":9672,"vention":9673,"Ġinterests":9674,"Ġ1962":9675,"Ġburnt":9676,"Ġilleg":9677,"Ġcovering":9678,"ĠQuick":9679,"Ġdepression":9680,"Ġverb":9681,"Ġcabinet":9682,"imitating":9683,"ĠHalf":9684,"Ġpoetry":9685,"softly":9686,"Ġtransferred":9687,"Ġfierce":9688,"ĠSweden":9689,"ĠSpring":9690,"Ġgoddess":9691,"Ġsufficient":9692,"ĠPersonal":9693,"Ġuniform":9694,"Ġpudding":9695,":--":9696,"VEN":9697,"iven":9698,"rad":9699,"tan":9700,"walk":9701,"Ġbaa":9702,"Ġcooper":9703,"Ġdomin":9704,"Ġduties":9705,"esome":9706,"Ġgre":9707,"ĠShi":9708,"ĠBud":9709,"ĠWELL":9710,"ĠHit":9711,"ĠHong":9712,"cended":9713,"ĠPick":9714,"ĠPict":9715,"ĠNord":9716,"ĠGary":9717,"Ġvision":9718,"Ġvalley":9719,"ĠStory":9720,"Ġpock":9721,"Ġdisaster":9722,"Ġmayor":9723,"ailing":9724,"Ġ32":9725,"meal":9726,"Ġdoorway":9727,"retty":9728,"ĠIndeed":9729,"Ġcapacity":9730,"Ġpersonally":9731,"ĠTrust":9732,"Ġconsideration":9733,"ĠEllen":9734,"Ġdescription":9735,"ĠSamuel":9736,"Ġslee":9737,"Ġprayer":9738,"Ġscientific":9739,"Ġfrequently":9740,"ĠBOY":9741,"Atlant":9742,"BLE":9743,"SH":9744,"Sh":9745,"oard":9746,"via":9747,"erves":9748,"Ġcherry":9749,"Ġdared":9750,"Ġweb":9751,"Ġrig":9752,"sex":9753,"Ġkings":9754,"stan":9755,"choo":9756,"ĠDaw":9757,"Ġcanoe":9758,"ĠLi":9759,"ells":9760,"ryn":9761,"INE":9762,"oused":9763,"Ġleaning":9764,"orney":9765,"ĠInstitute":9766,"teenth":9767,"iley":9768,"ĠFriend":9769,"Ġsitu":9770,"ĠAlab":9771,"ĠBeach":9772,"ĠGoodbye":9773,"Ġmusician":9774,"Ġ1961":9775,"cript":9776,"Ġsecretary":9777,"Ġeducated":9778,"ĠBerlin":9779,"break":9780,"ĠBoys":9781,"Ġscientists":9782,"Ġbarely":9783,"ĠThrough":9784,"Ġashore":9785,"Ind":9786,"TING":9787,"pool":9788,"upp":9789,"inea":9790,"Ġske":9791,"haw":9792,"Ġyucky":9793,"only":9794,"Ġpy":9795,"Ġlick":9796,"Ġnasty":9797,"Ġheels":9798,"Ġraid":9799,"ĠBos":9800,"ĠBax":9801,"ĠHOW":9802,"Ġaspect":9803,"Ġshove":9804,"ĠKent":9805,"ĠStation":9806,"Ġflour":9807,"Ġsciss":9808,"Ġmathemat":9809,"Ġhoriz":9810,"ĠGuard":9811,"Ġcoward":9812,"Ġoperating":9813,"Ġbullets":9814,"ĠCoast":9815,"Ġreaction":9816,"Ġvictims":9817,"Ġvessels":9818,"ĠSquare":9819,"ĠRecords":9820,"ĠDenver":9821,"ĠPersian":9822,"ĠSaxony":9823,"ĠPrague":9824,"Ġdisgust":9825,"!âĢĻ":9826,".)":9827,"AC":9828,"Sure":9829,"coh":9830,"kind":9831,"Ġmic":9832,"ĠIce":9833,"armed":9834,"leton":9835,"ĠHIS":9836,"ĠGulf":9837,"ĠFound":9838,"Ġshift":9839,"ĠEight":9840,"iga":9841,"INK":9842,"aga":9843,"angar":9844,"Ġchances":9845,"erer":9846,"inners":9847,"ĠEdric":9848,"Ġrefriger":9849,"Ġsqueak":9850,"Ġreasonable":9851,"ĠTwenty":9852,"ĠPhiladelphia":9853,"ĠManipur":9854,"Ġ1942":9855,"Ġannual":9856,"Ġpotential":9857,"Ġcontrolled":9858,"Ġhopes":9859,"Ġsuggestion":9860,"ĠGraham":9861,"Ġdespair":9862,"Ġpeanut":9863,"Manchester":9864,"fire":9865,"uer":9866,"Ġmush":9867,"oral":9868,"hati":9869,"ĠMISS":9870,"acement":9871,"ĠWild":9872,"ĠWalt":9873,"ĠHOR":9874,"ĠCOME":9875,"unting":9876,"ĠHealth":9877,"Ġsuicide":9878,"Ġgrim":9879,"ovie":9880,"because":9881,"Ġguarant":9882,"Ġbeloved":9883,"Ġaccused":9884,"Ġsurre":9885,"Ġregions":9886,"Ġmarbles":9887,"ĠShort":9888,"Ġhated":9889,"Ġdelicate":9890,"enez":9891,"Ġangle":9892,"Ġvaluable":9893,"Ġneighbors":9894,"Ġidentified":9895,"Ġbouncy":9896,"ĠRadio":9897,"Ġagreement":9898,"ĠKennedy":9899,"Ġthirsty":9900,"Ġprovinces":9901,"Ġtremendous":9902,"Ġpockets":9903,"By":9904,"Con":9905,"IX":9906,"rican":9907,"arse":9908,"Ġiniti":9909,"Ġstadium":9910,"ulu":9911,"ĠKa":9912,"ĠVe":9913,"Ġperman":9914,"Ġappointment":9915,"Ġmines":9916,"Ġelements":9917,"Ġ45":9918,"Ġinstinct":9919,"Ġskill":9920,"ĠReady":9921,"Ġhorrid":9922,"ĠChristians":9923,"raph":9924,"ĠExpress":9925,"ĠColor":9926,"Ġprotected":9927,"Ġceiling":9928,"Ġcandle":9929,"Ġcritical":9930,"ettie":9931,"Ġacquaint":9932,"Ġfirmly":9933,"Ġpreparing":9934,"Ġconstitution":9935,"Ġborders":9936,"ĠHeaven":9937,"ĠAnthony":9938,"Bl":9939,"Nat":9940,"cut":9941,"gun":9942,"iently":9943,"lar":9944,"oa":9945,"pired":9946,"pany":9947,"sound":9948,"Ġtad":9949,"Ġtires":9950,"inals":9951,"Ġsack":9952,"Ġbust":9953,"Ġbree":9954,"Ġmorn":9955,"Ġmath":9956,"Ġmobile":9957,"Ġdyn":9958,"Ġga":9959,"aya":9960,"ĠAG":9961,"ĠHaut":9962,"ĠYouth":9963,"ĠNorm":9964,"ĠNative":9965,"opard":9966,"ĠJord":9967,"Ġplung":9968,"Ġintegr":9969,"Ġsharing":9970,"Ġdaylight":9971,"Ġtalkin":9972,"Ġresc":9973,"Ġending":9974,"Ġaccur":9975,"ĠMaya":9976,"Ġmuscles":9977,"ĠEngine":9978,"ĠGuadal":9979,"Ġlaying":9980,"Ġ1945":9981,"Ġdestruction":9982,"Ġsalary":9983,"Ġuttered":9984,"going":9985,"chants":9986,"Ġwagons":9987,"Ġbounce":9988,"Ġchapter":9989,"Ġfunds":9990,"Ġsurvive":9991,"Ġcontrast":9992,"neezes":9993,"ĠOffice":9994,"Ġhesitated":9995,"Ġjournalist":9996,"Ġzebra":9997,"Atlantique":9998,"Bill":9999,"NG":10000,"PH":10001,"PS":10002,"TV":10003,"Tell":10004,"did":10005,"eh":10006,"lan":10007,"lace":10008,"Ġwander":10009,"Ġbol":10010,"orous":10011,"Ġinner":10012,"ĠTob":10013,"Ġrend":10014,"verness":10015,"Ġ[_":10016,"Ġrot":10017,"ĠBox":10018,"iry":10019,"ĠCorn":10020,"ĠPardon":10021,"ĠNascanora":10022,"ĠOcean":10023,"Ġsoil":10024,"ĠGro":10025,"eller":10026,"abor":10027,"Ġsuitc":10028,"Ġfeast":10029,"Ġapply":10030,"gets":10031,"Ġbuff":10032,"Ġglue":10033,"Ġglorious":10034,"Ġreduce":10035,"ĠEdith":10036,"unted":10037,"Ġdelivered":10038,"Ġsticker":10039,"ĠSpot":10040,"ĠSpeak":10041,"Ġdealing":10042,"ĠEloise":10043,"Ġmischief":10044,"AYS":10045,"Ġimagined":10046,"Ġrepresentative":10047,"ĠPrem":10048,"Ġmassive":10049,"Ġpursuit":10050,"ĠRandall":10051,"Ġcomedian":10052,"ĠFROM":10053,"ĠThings":10054,"ĠBourg":10055,"ĠAlabama":10056,"100":10057,"ICH":10058,"pha":10059,"rul":10060,"rants":10061,"tles":10062,"zburg":10063,"Ã§":10064,"Ġsou":10065,"Ġboring":10066,"Ġyield":10067,"Ġdess":10068,"Ġpear":10069,"Ġpoop":10070,"Ġlan":10071,"Ġlung":10072,"Ġinit":10073,"ĠSnow":10074,"ĠMain":10075,"ifford":10076,"ĠNether":10077,"Ġjoking":10078,"Ġsoda":10079,"ĠLind":10080,"ĠJen":10081,"ĠEp":10082,"bery":10083,"Ġfled":10084,"ĠViet":10085,"Ġpoll":10086,"Ġimper":10087,"ĠChin":10088,"Ġregional":10089,"ĠGranny":10090,"ĠClara":10091,"Ġbreaks":10092,"ORY":10093,"Ġcurios":10094,"ĠCarr":10095,"Ġpurse":10096,"REAM":10097,"Ġreplace":10098,"Ġ1959":10099,"Ġtrucks":10100,"Ġsharply":10101,"Ġmistress":10102,"Ġbehavior":10103,"ĠPeters":10104,"Ġarrangements":10105,"Ġcadet":10106,"ĠMuhammad":10107,"Ġsympathy":10108,"ĠJonathan":10109,"Ġguidance":10110,"Ġaccompanied":10111,"inate":10112,"Ġcoo":10113,"Ġcert":10114,"Ġmars":10115,"ingo":10116,"kee":10117,"ĠHank":10118,"ĠCab":10119,"ĠDuck":10120,"inks":10121,"uls":10122,"Ġworm":10123,"Ġflow":10124,"Ġflesh":10125,"ĠVen":10126,"Ġimpr":10127,"ensity":10128,"MAD":10129,"Ġcontained":10130,"Ġbund":10131,"ĠNewman":10132,"Ġrelation":10133,"Ġinstantly":10134,"ĠClinton":10135,"Ġinvite":10136,"Ġpainful":10137,"ĠConnect":10138,"REE":10139,"Ġparliament":10140,"Ġforehead":10141,"Ġcorrespond":10142,"Ġviews":10143,"Ġshouts":10144,"after":10145,"ĠNatal":10146,"Ġdespite":10147,"ĠChildren":10148,"ĠFreud":10149,"aguar":10150,"contin":10151,"See":10152,"UM":10153,"ivery":10154,"ipt":10155,"ji":10156,"mates":10157,"parent":10158,"round":10159,"tub":10160,"Ġoct":10161,"Ġnapp":10162,"Ġhitting":10163,"Ġbew":10164,"ĠSue":10165,"ĠScient":10166,"ĠHIM":10167,"ĠCut":10168,"ĠCra":10169,"Ġatmosp":10170,"Ġjar":10171,"ĠGOOD":10172,"ĠFeder":10173,"Ġdee":10174,"Ġtrash":10175,"ARY":10176,"âĢĿ!":10177,"Ġunw":10178,"ĠCho":10179,"ĠErin":10180,"Ġbelief":10181,"Ġpersonality":10182,"Ġinformed":10183,"Ġstealing":10184,"APP":10185,"ĠMcdon":10186,"ĠPatch":10187,"Ġequally":10188,"Ġswinging":10189,"Ġfavourite":10190,"ĠÂ¶":10191,"Ġwidow":10192,"ĠDuncan":10193,"ĠSpecial":10194,"Ġprocedure":10195,"Ġgym":10196,"ĠPictures":10197,"\";":10198,"HER":10199,"IVE":10200,"nat":10201,"town":10202,"Ġgap":10203,"Ġhed":10204,"ĠTon":10205,"ĠTIM":10206,"iders":10207,"ĠMouse":10208,"ĠBry":10209,"ĠWon":10210,"Ġstress":10211,"ĠHorn":10212,"ĠCongratulations":10213,"Ġkangar":10214,"ĠPant":10215,"una":10216,"ĠGal":10217,"Ġaboard":10218,"Ġalcoh":10219,"quet":10220,"emen":10221,"ection":10222,"Ġunple":10223,"ĠVenez":10224,"Ġdiscipl":10225,"Ġscrub":10226,"Ġstartled":10227,"Ġdistress":10228,"ugs":10229,"ĠArm":10230,"Ġpasses":10231,"INGS":10232,"Ġrelative":10233,"Ġcaut":10234,"Ġmovements":10235,"Ġdropping":10236,"ĠTomorrow":10237,"Ġstead":10238,"Ġmessy":10239,"Ġ1955":10240,"Ġ1947":10241,"ĠGrandad":10242,"ĠAustrian":10243,"ĠSmall":10244,"ICK":10245,"ĠSecurity":10246,"Ġhastily":10247,"Ġregarding":10248,"Ġinnit":10249,"Ġprinted":10250,"Ġmagnific":10251,"Ġdissol":10252,"Ġimitates":10253,"Ġkilomet":10254,"Sp":10255,"di":10256,"xide":10257,"Äĩ":10258,"Ġoption":10259,"ario":10260,"ashes":10261,"Ġhah":10262,"usie":10263,"Ġeffic":10264,"ĠMau":10265,"Ġrum":10266,"Ġratt":10267,"ĠBush":10268,"ĠCelia":10269,"ĠPier":10270,"ĠRa":10271,"rigg":10272,"osis":10273,"Ġconven":10274,"ulture":10275,"Ġdese":10276,"ĠMargie":10277,"Ġcattle":10278,"Ġwarrant":10279,"Ġsixth":10280,"Ġenters":10281,"ĠClass":10282,"Ġcollea":10283,"Ġgreenbelt":10284,"Ġexplore":10285,"Ġsoftware":10286,"Ġrubbish":10287,"flies":10288,"._]":10289,"ĠJoel":10290,"Ġhonestly":10291,"Ġinjury":10292,"Ġmotorcy":10293,"Chris":10294,"ĠLarry":10295,"Ġdetective":10296,"ĠWalter":10297,"Ġsavage":10298,"Ġexperienced":10299,"Ġsurrounding":10300,"Ġabandoned":10301,"Ġconclusion":10302,"Ġscissors":10303,")}":10304,"37":10305,"Please":10306,"Some":10307,"his":10308,"Ġwins":10309,"Ġoat":10310,"Ġbuh":10311,"Ġcors":10312,"Ġdried":10313,"Ġfuel":10314,"ĠIan":10315,"aria":10316,"Ġinsect":10317,"otic":10318,"ĠSyl":10319,"ĠHye":10320,"ĠHills":10321,"ĠHaving":10322,"ĠCob":10323,"ĠYang":10324,"ĠDere":10325,"uno":10326,"abs":10327,"osa":10328,"Ġvoc":10329,"Ġtroubled":10330,"ĠKhan":10331,"Ġbride":10332,"Ġshakes":10333,"ĠTherefore":10334,"babble":10335,"Ġcolumn":10336,"Ġawfully":10337,"ĠHarwood":10338,"Ġdeaths":10339,"Ġstudying":10340,"ika":10341,"Ġbands":10342,"Ġstruct":10343,"Ġpractically":10344,"Ġchickens":10345,"Ġdiaper":10346,"Ġdepth":10347,"ĠEnter":10348,"ĠQueens":10349,"Ġblessed":10350,"Ġideal":10351,"Ġimmig":10352,"ĠWILL":10353,"Ġvanished":10354,"Ġimproved":10355,"Ġpraise":10356,"Ġmurmured":10357,"ĠPooja":10358,"ĠNetherlands":10359,"Me":10360,"fter":10361,"Ġdign":10362,"onent":10363,"Ġtool":10364,"ĠTha":10365,"Ġreject":10366,"ĠFE":10367,"Ġseeking":10368,"Ġwilln":10369,"Ġbron":10370,"ulls":10371,"ccer":10372,"Ġheadquarters":10373,"Ġrecon":10374,"Ġrecover":10375,"Ġswung":10376,"Ġhighchair":10377,"ĠArea":10378,"Ġrefuse":10379,"Ġinterfe":10380,"Ġinfl":10381,"ĠAbbey":10382,"ĠTwilight":10383,"from":10384,"Ġlaunch":10385,"Ġexpert":10386,"ighbor":10387,"canal":10388,"ĠJulie":10389,"Ġemployed":10390,"Ġstruggling":10391,"Ġwrestler":10392,"Ġbeef":10393,"OTHER":10394,"Ġdismiss":10395,"ĠBangl":10396,"ĠHugh":10397,"Ġgranted":10398,"ĠBroadway":10399,"Ġvoyage":10400,"ĠCochran":10401,"BR":10402,"gers":10403,"ras":10404,"Ġack":10405,"Ġ**":10406,"itage":10407,"Ġmal":10408,"Ġdigging":10409,"Ġpuff":10410,"Ġgum":10411,"Ġnail":10412,"Ġinches":10413,"ĠMaced":10414,"ĠHo":10415,"Ġkite":10416,"Ġ\"_":10417,"ĠYam":10418,"ĠDam":10419,"ifice":10420,"ĠNettie":10421,"ĠEX":10422,"agraph":10423,"Ġclick":10424,"Ġoverall":10425,"Ġroot":10426,"Ġuniverse":10427,"TEN":10428,"Ġstrateg":10429,"Ġ34":10430,"Ġmonarch":10431,"Ġdistract":10432,"ĠArchie":10433,"Ġsilk":10434,"Ġadding":10435,"Ġawk":10436,"ĠTechn":10437,"Ġpatients":10438,"Ġraising":10439,"ĠOFF":10440,"ervative":10441,"ĠDrusie":10442,"Ġbananas":10443,"chant":10444,"Ġcombined":10445,"Ġcrowded":10446,"ĠDoesn":10447,"Ġcustomer":10448,"ĠSyd":10449,"Ġdebt":10450,"Franche":10451,"kerchief":10452,"ĠÂ£":10453,"Ġcamel":10454,"Ġearnestly":10455,"ComtÃ©":10456,"ĠGuadalcanal":10457,"ĠVenezuel":10458,"CO":10459,"EF":10460,"FL":10461,"girl":10462,"zona":10463,"Ġhollow":10464,"ĠBC":10465,"ĠDak":10466,"ĠPE":10467,"ĠPass":10468,"ĠNap":10469,"Ġfract":10470,"ĠLadies":10471,"Ġallows":10472,"ĠRab":10473,"Ġabund":10474,"Ġaloud":10475,"igen":10476,"ĠThirty":10477,"Ġneedn":10478,"ĠUnless":10479,"upon":10480,"Ġelbow":10481,"ĠForget":10482,"Ġawhile":10483,"Ġhats":10484,"Ġpatch":10485,"Ġ1954":10486,"Ġfiles":10487,"Ġsmells":10488,"adesh":10489,"Ġunclear":10490,"Ġaccommod":10491,"ĠBetter":10492,"ĠRegion":10493,"ĠPete":10494,"ĠRoland":10495,"Ġmoral":10496,"Ġporch":10497,"KKK":10498,"Ġlouder":10499,"ĠEducation":10500,"ĠMicrosoft":10501,"ĠJordan":10502,"ĠBourgogne":10503,"crow":10504,"hh":10505,"mitted":10506,"Ġing":10507,"Ġtag":10508,"Ġdating":10509,"orus":10510,"ĠAst":10511,"star":10512,"tery":10513,"Ġsob":10514,"ĠLaugh":10515,"ĠLib":10516,"ĠLoren":10517,"ĠFur":10518,"ĠRhod":10519,"aks":10520,"Ġagric":10521,"ureau":10522,"Ġscattered":10523,"Ġheading":10524,"Ġgloom":10525,"Ġregist":10526,"Ġwarned":10527,"OUS":10528,"Ġlighter":10529,"Ġcharity":10530,"Ġreputation":10531,"ĠSpider":10532,"Ġgeneration":10533,"Ġpriest":10534,"Ġ1951":10535,"Ġapproved":10536,"Ġ1946":10537,"ĠColomb":10538,"Ġalbums":10539,"Ġpuzzled":10540,"Ġruled":10541,"ĠMusab":10542,"ĠDarius":10543,"Ġsensible":10544,"ĠAnton":10545,"Ġliterally":10546,"Ġadministration":10547,"TTT":10548,"ĠJoyce":10549,"ĠPrincess":10550,"ĠCTX":10551,"Ġsuitcase":10552,"Ġawkward":10553,"39":10554,"66":10555,"WH":10556,"Ġtire":10557,"Ġwaving":10558,"Ġtheatre":10559,"hard":10560,"Ġcure":10561,"Ġfitted":10562,"Ġpanda":10563,"ĠAv":10564,"ĠAuthor":10565,"ĠSat":10566,"imm":10567,"ĠWars":10568,"entions":10569,"Ġstair":10570,"ĠCub":10571,"ĠClear":10572,"Ġseeds":10573,"Ġlip":10574,"ĠDoc":10575,"ĠGree":10576,"ĠJO":10577,"ĠJob":10578,"agers":10579,"Ġintr":10580,"ivia":10581,"ova":10582,"Ġflies":10583,"ructed":10584,"ĠFran":10585,"Ġhelpful":10586,"Ġcommission":10587,"ĠChamp":10588,"Ġsurf":10589,"Ġlightning":10590,"Ġyoungest":10591,"Ġrelieved":10592,"Ġcared":10593,"Ġdeliber":10594,"Ġdelivery":10595,"Ġexplains":10596,"Ġbusinessman":10597,"Ġofficials":10598,"Ġ1939":10599,"ĠDanes":10600,"ĠCommander":10601,"Ġtests":10602,"Ġdisappointment":10603,"Ġcombat":10604,"Ġwidely":10605,"pointing":10606,"Ġroughly":10607,"Ġidentify":10608,"Ġattractive":10609,"ĠRyan":10610,"Ġterrific":10611,"Ġentertainment":10612,"Ġgraduated":10613,"Ġprocedures":10614,"Ġsubstant":10615,"Ġslippers":10616,"ĠMallory":10617,"Ġexchange":10618,"\"),":10619,"70":10620,"BA":10621,"Huh":10622,"hums":10623,"Ġbun":10624,"arin":10625,"asha":10626,"oti":10627,"ĠBand":10628,"ĠWr":10629,"ĠHaven":10630,"Ġashes":10631,"Ġnoon":10632,"ĠLive":10633,"ĠEarl":10634,"Ġtwist":10635,"ĠKam":10636,"Ġunique":10637,"obal":10638,"Ġindic":10639,"ERY":10640,"Ġpassenger":10641,"Ġlighted":10642,"ĠAdminist":10643,"Ġguessed":10644,"Ġimpat":10645,"Ġ85":10646,"Ġsteamer":10647,"Ġprizes":10648,"Ġ179":10649,"Ġ1948":10650,"THA":10651,"Ġsuperior":10652,"Ġmounted":10653,"Ġissued":10654,"Ġcopies":10655,"Ġcracker":10656,"Ġbehave":10657,"Ġindustrial":10658,"Ġanticip":10659,"Ġvacation":10660,"ĠMamie":10661,"ĠSelwyn":10662,"ĠPirate":10663,"Ġsuspicion":10664,"Ġdomestic":10665,"Ġcuriosity":10666,"ĠDerek":10667,"DY":10668,"Very":10669,"ef":10670,"hous":10671,"lk":10672,"Ġtuck":10673,"inated":10674,"refe":10675,"Ġyuck":10676,"ĠIllust":10677,"asks":10678,"ĠHope":10679,"ĠCensus":10680,"hers":10681,"ĠDAD":10682,"ĠNations":10683,"ĠLam":10684,"ĠEat":10685,"Ġprob":10686,"Ġerror":10687,"Ġcarrot":10688,"irling":10689,"Ġcharming":10690,"gedy":10691,"Ġskills":10692,"Ġsweep":10693,"Ġlegisl":10694,"ĠANY":10695,"Ġbottles":10696,"OMAN":10697,"Ġknocking":10698,"ĠAmanda":10699,"Ġformerly":10700,"Ġvisitor":10701,"Ġdiagn":10702,"Ġremarkable":10703,"Ġdevoted":10704,"Ġgasped":10705,"Ġcombination":10706,"Ġaccompany":10707,"IGHS":10708,"Ġdocuments":10709,"ĠResearch":10710,"Ġliterature":10711,"ĠMissionary":10712,"ĠSwedish":10713,"Ġcandidate":10714,"ĠPinkie":10715,"ĠTaylor":10716,"Ġunpleasant":10717,"FT":10718,"VD":10719,"corder":10720,"eenth":10721,"pol":10722,"inter":10723,"Ġwool":10724,"Ġcub":10725,"Ġlun":10726,"ĠTRI":10727,"ĠMoo":10728,"ĠMiy":10729,"Ġgolf":10730,"urger":10731,"Ġouter":10732,"aund":10733,"ARS":10734,"iah":10735,"ĠVol":10736,"Ġdisgr":10737,"Ġadjust":10738,"ĠAssembly":10739,"Ġglory":10740,"Ġaccustomed":10741,"Ġcolon":10742,"Ġcurly":10743,"Ġ99":10744,"ĠConstitution":10745,"ĠBarnum":10746,"Ġgrounds":10747,"Ġmillions":10748,"Ġcommunities":10749,"Ġattempted":10750,"ĠJuliet":10751,"AKING":10752,"ĠMelissa":10753,"Ġrevolver":10754,"Ġfolded":10755,"ĠClaire":10756,"Ġtalent":10757,"Ġresistance":10758,"ĠBedrul":10759,"ĠRussell":10760,"Ġmunicipalities":10761,"75":10762,"Get":10763,"Hello":10764,"pent":10765,"woman":10766,"Ġq":10767,"ĠÅ":10768,"have":10769,"itals":10770,"Ġcops":10771,"Ġmax":10772,"Ġdial":10773,"ĠImp":10774,"omp":10775,"Ġbeads":10776,"ĠSame":10777,"Ġrein":10778,"ĠBoo":10779,"ĠWERE":10780,"enton":10781,"âĢľ":10782,"Ġnothin":10783,"illo":10784,"ifting":10785,"ĠPear":10786,"ĠOre":10787,"ĠOVER":10788,"ĠRud":10789,"ĠEthe":10790,"ousins":10791,"Ġbru":10792,"Ġpolar":10793,"phones":10794,"ĠCarroll":10795,"uese":10796,"Ġsimpl":10797,"UNC":10798,"ĠChile":10799,"Ġruin":10800,"Ġturtles":10801,"Ġtastes":10802,"Ġgenius":10803,"Ġelephants":10804,"Ã¼r":10805,"Ġplainly":10806,"Ġmaterials":10807,"Ġpossessed":10808,"Ġexhausted":10809,"ĠArizona":10810,"ĠMerriman":10811,"ropolitan":10812,"budour":10813,"ĠHORAT":10814,"ĠRhodes":10815,"ĠGreece":10816,"ĠBedrulbudour":10817,"DO":10818,"du":10819,"gian":10820,"po":10821,"Ġtum":10822,"heastern":10823,"Ġbicycle":10824,"Ġcj":10825,"oning":10826,"edge":10827,"Ġonline":10828,"Ġrates":10829,"steps":10830,"âĢ²":10831,"ĠGang":10832,"ĠFat":10833,"ĠFall":10834,"ĠFanny":10835,"ĠEVER":10836,"Ġabroad":10837,"Ġworms":10838,"Ġera":10839,"Ġshade":10840,"actory":10841,"oba":10842,"Ġimage":10843,"Ġacts":10844,"Ġcontents":10845,"Ġcounted":10846,"aza":10847,"Ġcares":10848,"shot":10849,"Ġpatience":10850,"ĠExcept":10851,"Ġreceiving":10852,"USE":10853,"Ġdresses":10854,"Ġmeantime":10855,"Ġpractical":10856,"OWN":10857,"Ġcrept":10858,"Ġengineer":10859,"Ġslightest":10860,"Ġgalleys":10861,"Ġinvestment":10862,"Ġtechnical":10863,"ĠBetty":10864,"ĠLouisiana":10865,"Ġapplied":10866,"Ġindividuals":10867,"Ġutterly":10868,"Ġpouring":10869,"ĠPrize":10870,"Ġmagnets":10871,"ĠBonnet":10872,"Ġarticles":10873,"Ġgorgeous":10874,"Ġinstruments":10875,"Ġliberal":10876,"Ġunfortunate":10877,"Ġsausages":10878,"Ġmanufacture":10879,"ĠHondura":10880,"crayon":10881,"Ġoatmeal":10882,".[":10883,"38":10884,"CDS":10885,"GRO":10886,"cus":10887,"iac":10888,"pher":10889,"pur":10890,"llis":10891,"orters":10892,"Ġpens":10893,"Ġpenn":10894,"Ġgit":10895,"arn":10896,"Ġhaw":10897,"ldom":10898,"utiful":10899,"Ġrehe":10900,"Ġrevenge":10901,"ĠBav":10902,"ĠWrest":10903,"ĠCurt":10904,"ifully":10905,"ĠFind":10906,"ĠJay":10907,"ulting":10908,"Ġvice":10909,"Ġintonation":10910,"Ġbacks":10911,"care":10912,"ĠUF":10913,"angled":10914,"ĠViz":10915,"Ġchasing":10916,"ĠAshati":10917,"Ġ44":10918,"Ġskull":10919,"Ġbandage":10920,"Ġfilms":10921,"Ġhopeless":10922,"Ġdamaged":10923,"ITTLE":10924,"Ġnecklace":10925,"Ġremarks":10926,"Ġhaste":10927,"Ġautumn":10928,"ĠGlad":10929,"Ġfiring":10930,"Ġtitles":10931,"Ġurban":10932,"Ġgravely":10933,"ĠHamilton":10934,"ĠGOING":10935,"Ġclaims":10936,"Ġtypical":10937,"ĠPortugal":10938,"Ġexplosion":10939,"ĠPhilippines":10940,"Ġtrembling":10941,"Ġenormous":10942,"Jan":10943,"MENT":10944,"cia":10945,"rating":10946,"uper":10947,"hee":10948,"rete":10949,"Ġhack":10950,"Ġweary":10951,"ĠBase":10952,"ĠCry":10953,"Ġank":10954,"Ġassemb":10955,"Ġsheets":10956,"thou":10957,"question":10958,"osl":10959,"akers":10960,"Ġspy":10961,"Ġclients":10962,"Ġgram":10963,"Ġcob":10964,"izzy":10965,"Ġwrap":10966,"ĠWhoo":10967,"Ġcrashed":10968,"Ġappet":10969,"insula":10970,"Ġsingles":10971,"Ġmarched":10972,"Ġ48":10973,"ĠClark":10974,"onym":10975,"Ġinterpret":10976,"Ġ75":10977,"Ġmessages":10978,"UND":10979,"Ġ1944":10980,"Ġrainbow":10981,"Ġabsor":10982,"Ġfilling":10983,"ĠWHEN":10984,"Ġdetail":10985,"Ġbeaten":10986,"ĠAngel":10987,"Ġimmediate":10988,"Ġbleeding":10989,"Ġcelebrate":10990,"Maybe":10991,"ĠMountain":10992,"ĠBuilder":10993,"ĠPortuguese":10994,"ĠColorado":10995,"ĠNatalie":10996,"AV":10997,"DEN":10998,"MR":10999,"Mc":11000,"life":11001,"moves":11002,"pack":11003,"Ġshan":11004,"ishi":11005,"Ġdada":11006,"Ġtomb":11007,"oria":11008,"Ġinch":11009,"Ġdose":11010,"Ġrod":11011,"ĠHAD":11012,"ĠCape":11013,"Ġmeow":11014,"Ġknot":11015,"ĠPy":11016,"ĠJin":11017,"olar":11018,"ulars":11019,"ategy":11020,"Ġagency":11021,"Ġarts":11022,"ĠUr":11023,"Ġflows":11024,"Ġstrategy":11025,"velope":11026,"Ġrestrict":11027,"Ġsubd":11028,"Ġsweater":11029,"ĠLeg":11030,"Ġtreas":11031,"ĠConway":11032,"Ġemotion":11033,"AST":11034,"atural":11035,"Ġcreating":11036,"Ġcorpor":11037,"Ġsailing":11038,"ĠRaymond":11039,"Ġdemonstr":11040,"Ġdeaf":11041,"ĠCHARLES":11042,"Ġprinciple":11043,"Ġsaddle":11044,"dire":11045,"ui":11046,"Ġtube":11047,"Ġdates":11048,"Ġpunch":11049,"ĠToy":11050,"Ġbees":11051,"ĠAk":11052,"ĠSom":11053,"ĠMas":11054,"Ġrept":11055,"Ġuna":11056,"Ġrural":11057,"Ġworship":11058,"ĠKid":11059,"Ġoffering":11060,"ĠVice":11061,"ĠAli":11062,"ĠMomma":11063,"Ġpopcorn":11064,"Ġmeetings":11065,"Ġtelegram":11066,"ĠPruss":11067,"Ġdefin":11068,"Ġcircles":11069,"Ġfarmers":11070,"Ġsuspend":11071,"Ġprofession":11072,"Ġaccounts":11073,"Ġdepos":11074,"Ġ1928":11075,"Ġmachines":11076,"ĠEnough":11077,"ĠScottish":11078,"Ġexisting":11079,"Ġassistance":11080,"ĠBella":11081,"Ġshells":11082,"ĠGirls":11083,"Ġvehicles":11084,"Ġcrisis":11085,"intendo":11086,"Ġsquirrel":11087,"Ġsausage":11088,"Ġalternative":11089,"Ġfortunate":11090,"ĠTelevision":11091,"ĠInternet":11092,"orporated":11093,"Ġdessert":11094,",.":11095,"36":11096,"Take":11097,"jan":11098,"why":11099,"iner":11100,"Ġgb":11101,"ĠTai":11102,"Ġbeam":11103,"ĠSounds":11104,"ĠMind":11105,"ĠWay":11106,"Ġmeals":11107,"Ġseldom":11108,"ĠYo":11109,"ĠDale":11110,"ĠNintendo":11111,"rive":11112,"Ġflav":11113,"Ġ300":11114,"ĠBeing":11115,"Ġswings":11116,"uffy":11117,"Ġlightly":11118,"Ġentry":11119,"Ġrelatives":11120,"Ġsmallest":11121,"Ġcutie":11122,"Ġassess":11123,"Ġsteep":11124,"Ġquestioned":11125,"Ġevac":11126,"Ġrocket":11127,"Ġcleaned":11128,"Ġclearing":11129,"Ġeffective":11130,"Ġpropose":11131,"relative":11132,"Station":11133,"Ġnursing":11134,"Ġbounces":11135,"Ġsuitable":11136,"Ġhistoric":11137,"Ġforests":11138,"Ġ{\\":11139,"ĠClavering":11140,"Ġrevealed":11141,"Ġnicer":11142,"ĠClarice":11143,"Ġproposal":11144,"ĠNetwork":11145,"Ġsoutheast":11146,"ĠSydney":11147,"ĠDakota":11148,"ME":11149,"fare":11150,"gage":11151,"rical":11152,"rane":11153,"voice":11154,"Ġvel":11155,"Ġsar":11156,"Ġsulf":11157,"Ġbills":11158,"Ġinfection":11159,"ĠAction":11160,"ĠSaul":11161,"Ġraspberry":11162,"ĠWick":11163,"ĠWonder":11164,"ĠHell":11165,"ĠHospital":11166,"ĠCro":11167,"ĠCru":11168,"ĠCousin":11169,"roit":11170,"ĠNi":11171,"ĠLion":11172,"abled":11173,"Ġvague":11174,"Ġovert":11175,"ciences":11176,"bee":11177,"Ġunderground":11178,"ĠUnivers":11179,"Ġbugs":11180,"ĠTHANK":11181,"tainment":11182,"ĠAncient":11183,"Ġconscience":11184,"shit":11185,"ĠProt":11186,"Ġ1963":11187,"Ġ1965":11188,"Ġrocking":11189,"Ġconcert":11190,"Ġbirdie":11191,"Ġ1941":11192,"Ġ1949":11193,"Ġdemocracy":11194,"Ġruins":11195,"Ġtemple":11196,"Ġturkey":11197,"Ġbelonging":11198,"ienna":11199,"Ġsailor":11200,"Ġdiscussed":11201,"Ġsensitive":11202,"Ġbehalf":11203,"ĠJohan":11204,"Ġbenefits":11205,"ĠHawkins":11206,"ĠWhether":11207,"ĠDiego":11208,"Ġamusement":11209,"Ġchristmas":11210,"Ġatmosphere":11211,"ĠMcdonalds":11212,"Se":11213,"With":11214,"boo":11215,"folk":11216,"say":11217,"Ã¢":11218,"Äį":11219,"Ġbah":11220,"Ġcinem":11221,"Ġdot":11222,"Ġdick":11223,"Ġfid":11224,"encies":11225,"Ġnav":11226,"Ġinfect":11227,"owa":11228,"Ġbeings":11229,"ĠAbr":11230,"ĠAggie":11231,"ĠMs":11232,"ĠMask":11233,"Ġrattle":11234,"ĠCir":11235,"Ġselect":11236,"ifer":11237,"Ġfries":11238,"Ġfridge":11239,"ĠLITTLE":11240,"Ġdeed":11241,"Ġorphan":11242,"Ġexisted":11243,"Ġlecture":11244,"Ġamused":11245,"angs":11246,"Ġcarrier":11247,"Ġpoems":11248,"Ġchlor":11249,"Ġdisgu":11250,"Ġ37":11251,"Ġindul":11252,"Ġcausing":11253,"Ġdrives":11254,"Ġhath":11255,"END":11256,"Ġjoining":11257,"Ġstriking":11258,"Ġturb":11259,"Ġdifficulties":11260,"Ġcreep":11261,"Ġsolve":11262,"Ġcomplicated":11263,"Ġprivile":11264,"ĠPlayStation":11265,"Ġsuspected":11266,"Ġyogh":11267,"Ġspoil":11268,"Ġunfortunately":11269,"Ġpuppet":11270,"Ġlatest":11271,"ĠJacob":11272,"current":11273,"Ġanchor":11274,"ĠUtah":11275,"Ġmotorcycle":11276,"mi":11277,"your":11278,"Ġsust":11279,"Ġoars":11280,"Ġease":11281,"ĠSup":11282,"ĠSky":11283,"ĠWy":11284,"ĠWWE":11285,"ĠHir":11286,"Ġkitten":11287,"allel":11288,"ĠNeram":11289,"ĠLily":11290,"Ġvroom":11291,"ĠKh":11292,"Ġclin":11293,"Ġenvelope":11294,"active":11295,"Ġsecrets":11296,"Ġstrain":11297,"erecorder":11298,"Ġresting":11299,"Ġ49":11300,"ï¿½ï¿½ï¿½":11301,"Ġfootballer":11302,"Ġcupboard":11303,"commun":11304,"Ġdevil":11305,"ĠSerb":11306,"ugged":11307,"ĠWinds":11308,"Ġtaxes":11309,"silence":11310,"Ġpanic":11311,"Ġpanel":11312,"Ġpermitted":11313,"Ġgrav":11314,"Ġbatteries":11315,"build":11316,"Ġadults":11317,"Ġinvented":11318,"Ġdisturbed":11319,"Ġcaterpillar":11320,"ĠTIME":11321,"Ġalcohol":11322,"bro":11323,"oen":11324,"ĠÃŃ":11325,"Ġwounds":11326,"Ġsher":11327,"Ġcousins":11328,"Ġdart":11329,"Ġfer":11330,"Ġpha":11331,"Ġlions":11332,"Ġlazy":11333,"ĠTal":11334,"uster":11335,"ĠAR":11336,"ĠSad":11337,"ĠSwww":11338,"Ġdol":11339,"..\"":11340,"ĠBurn":11341,"Ġstake":11342,"Ġwhip":11343,"ĠDig":11344,"ĠDomin":11345,"ĠOper":11346,"Ġsod":11347,"unction":11348,"opl":11349,"ĠFood":11350,"ĠFuk":11351,"thm":11352,"hant":11353,"emet":11354,"Ġproport":11355,"Ġbrid":11356,"Ġoffers":11357,"assador":11358,"Ġleaped":11359,"ancies":11360,"ĠAlways":11361,"Ġdisturb":11362,"ĠArts":11363,"oker":11364,"alem":11365,"Ġmeters":11366,"ĠCommon":11367,"Ġparagraph":11368,"gasp":11369,"Ġapprox":11370,"Ġsadly":11371,"Ġtasty":11372,"Ġ1929":11373,"Ġdanced":11374,"ĠJulia":11375,"Ġcrawling":11376,"Ġresolved":11377,"Ġrequirements":11378,"ĠEgyptian":11379,"Ġpupils":11380,"Ġelevator":11381,"Ġinclined":11382,"Ġschedule":11383,"onomous":11384,"Ġmushroom":11385,"Nally":11386,"jab":11387,"made":11388,"Ġsan":11389,"Ġsed":11390,"Ġsunk":11391,"Ġber":11392,"Ġdashed":11393,"Ġpine":11394,"Ġgoose":11395,"vet":11396,"etic":11397,"ĠWOULD":11398,"Ġstab":11399,"ĠHwww":11400,"Ġsolo":11401,"Ġalter":11402,"Ġvic":11403,"pson":11404,"Ġhandkerchief":11405,"ogy":11406,"olds":11407,"ĠChuck":11408,"uchess":11409,"Ġ38":11410,"pron":11411,"ĠAnim":11412,"Ġregister":11413,"Ġbroom":11414,"Ġchairman":11415,"ORT":11416,"Ġsquash":11417,"ĠWillis":11418,"rington":11419,"iki":11420,"ĠBarcel":11421,"ĠOrgan":11422,"Ġexamples":11423,"Ġfreely":11424,"Ġ1933":11425,"Ġcommunication":11426,"Ġstatue":11427,"Ġcreation":11428,"Ġutmost":11429,"Ġlifts":11430,"Ġjudgment":11431,"Ġshadows":11432,"Ġpreferred":11433,"ĠHadley":11434,"ĠHollywood":11435,"ifferent":11436,"Ġastonishment":11437,"Ġscramb":11438,"Ġterminal":11439,"Ġconverted":11440,"Ġsacrifice":11441,"music":11442,"ĠLangridge":11443,"ĠOfficer":11444,"Ġoctop":11445,"Ġkangaroo":11446,");":11447,"Alex":11448,"Re":11449,"nels":11450,"rits":11451,"Ġapt":11452,"Ġbass":11453,"isters":11454,"Ġmales":11455,"Ġnom":11456,"Ġnaked":11457,"ĠSno":11458,"Ġsty":11459,"ighty":11460,"Ġseed":11461,"Ġnod":11462,"ĠRain":11463,"ulance":11464,"three":11465,"Ġspit":11466,"Ġ(),":11467,"Ġ1920":11468,"Ġroots":11469,"Ġsometime":11470,"Ġscenes":11471,"Ġcrimes":11472,"Ġbuggy":11473,"ucing":11474,"Ġindicate":11475,"Ġ400":11476,"Ġworldwide":11477,"Ġassurance":11478,"Ġinvitation":11479,"ĠSend":11480,"Ġvisiting":11481,"reading":11482,"Ġloaded":11483,"ĠNeither":11484,"Ġengineering":11485,"Ġselfish":11486,"ĠLouise":11487,"IRST":11488,"strong":11489,"ĠBetween":11490,"ĠMinnie":11491,"Ġsavings":11492,"Ġwebsite":11493,"ĠStuart":11494,"ritsar":11495,"59":11496,"rations":11497,"school":11498,"Ġwob":11499,"repe":11500,"Ġok":11501,"Ġol":11502,"Ġnortheast":11503,"ĠAld":11504,"ĠMess":11505,"acles":11506,"Ġstub":11507,"Ġstroll":11508,"ĠCamer":11509,"ĠYES":11510,"ĠDer":11511,"ĠPie":11512,"ĠNine":11513,"ĠOrigin":11514,"Ġjumper":11515,"ĠRaj":11516,"Ġplains":11517,"Ġspoons":11518,"Ġtwins":11519,"Ġmanners":11520,"oded":11521,"ĠKings":11522,"ĠNoel":11523,"ressing":11524,"ĠVI":11525,"Ġprecise":11526,"neighbor":11527,"Ġhomework":11528,"ĠTHINK":11529,"Ġacademy":11530,"ĠNewton":11531,"Ġconspir":11532,"Ġassure":11533,"ĠAdvent":11534,"Ġhopefully":11535,"ĠComing":11536,"Ġexamination":11537,"ĠPercy":11538,"Ġanswering":11539,"Ġlawn":11540,"ĠPauline":11541,"Ġ1931":11542,"Ġdirectors":11543,"Ġemphas":11544,"Ġcomputers":11545,"LAUGH":11546,"OPLE":11547,"ĠMiche":11548,"Ġtrailer":11549,"Ġconfirm":11550,"Ġwarrior":11551,"Ġelderly":11552,"Ġdwellings":11553,"Ġsupplies":11554,"ĠCOMP":11555,"ĠHartley":11556,"Ġdisagre":11557,"ĠMRS":11558,"Ġpistol":11559,"ĠSukie":11560,"Ġillegal":11561,"ricane":11562,"emetery":11563,"BI":11564,"kers":11565,"mill":11566,"somet":11567,"ygen":11568,"Ġtch":11569,"Ġtroll":11570,"inent":11571,"Ġfoe":11572,"oric":11573,"enra":11574,"Ġink":11575,"atically":11576,"Ġbean":11577,"Ġejac":11578,"ĠBishop":11579,"ĠCort":11580,"ĠCOULD":11581,"Ġjunior":11582,"Ġshield":11583,"Ġalike":11584,"itts":11585,"Ġspray":11586,"Ġagony":11587,"Ġgrasp":11588,"addie":11589,"iren":11590,"Ġflashed":11591,"ĠWhit":11592,"Ġbabe":11593,"claps":11594,"Ġrecess":11595,"Ġeyeb":11596,"Ġbedtime":11597,"ampa":11598,"Ġtriumph":11599,"Ġ47":11600,"brooke":11601,"Ġrefuge":11602,"Ġrepair":11603,"Ġexcess":11604,"Ġobjection":11605,"Ġfurious":11606,"Ġmerchant":11607,"Ġstrip":11608,"Ġverse":11609,"Ġtorture":11610,"ĠTurks":11611,"Ġtaperecorder":11612,"Ġidentity":11613,"Ġsearching":11614,"Ġimmense":11615,"Ġfeatured":11616,"Ġindependence":11617,"Ġribbon":11618,"Ġconcealed":11619,"Ġdrowned":11620,"Ġsample":11621,"ĠSweet":11622,"Ġintelligence":11623,"Ġconductor":11624,"Billboard":11625,"ĠIllustrated":11626,"AF":11627,"AGE":11628,"MAN":11629,"borough":11630,"cup":11631,"wen":11632,"Ġ;":11633,"Ġtons":11634,"Ġtaps":11635,"Ġtales":11636,"Ġdip":11637,"Ġfab":11638,"Ġfulf":11639,"Ġpaj":11640,"Ġgardens":11641,"atures":11642,"Ġhears":11643,"ownt":11644,"ĠTu":11645,"ĠSi":11646,"ĠMand":11647,"ĠMull":11648,"ĠMaur":11649,"Ġroo":11650,"Ġrack":11651,"Ġrip":11652,"ĠBudd":11653,"Ġcann":11654,"ĠPayne":11655,"ante":11656,"ĠGOT":11657,"Ġshrie":11658,"Ġclam":11659,"Ġflame":11660,"Ġwrist":11661,"never":11662,"onto":11663,"Ġmarve":11664,"ĠIndones":11665,"ĠGerhart":11666,"Ġplanes":11667,"ĠConnor":11668,"Ġcooked":11669,"Ġsummit":11670,"Ġpositions":11671,"ĠAmritsar":11672,"ĠPresently":11673,"Ġdoubtless":11674,"Ġcandles":11675,"Ġcompete":11676,"Ġcommanded":11677,"Ġanxiously":11678,"Ġopposition":11679,"Ġfemales":11680,"Ġreacting":11681,"ĠTodd":11682,"hearted":11683,"Ġcelebrated":11684,"ĠCathedral":11685,"Ġmulti":11686,"Ġmurderer":11687,"Ġdebuted":11688,"ĠHonor":11689,"iasm":11690,"Ġtoothbrush":11691,"ĠNEW":11692,"ĠForest":11693,"ĠDebbie":11694,"Ġadmiration":11695,"Ġretirement":11696,"driver":11697,"ĠTWO":11698,"Ġhamburger":11699,"Ġlantern":11700,"ĠVietnam":11701,"Ġacknow":11702,"ĠHORATIA":11703,"BO":11704,"HS":11705,"SIGHS":11706,"Tr":11707,"dor":11708,"good":11709,"mpt":11710,"oi":11711,"rich":11712,"Ġmuff":11713,"Ġdummy":11714,"Ġinher":11715,"atched":11716,"adad":11717,"Ġdod":11718,"Ġrenew":11719,"ente":11720,"stick":11721,"Ġmend":11722,"Ġange":11723,"eare":11724,"ifies":11725,"ĠOP":11726,"Ġfraud":11727,"ando":11728,"ĠLow":11729,"ĠFisher":11730,"gee":11731,"Ġoutta":11732,"Ġgrade":11733,"Ġprices":11734,"Ġflames":11735,"Ġcarbon":11736,"Ġthrone":11737,"class":11738,"Ġcontempt":11739,"ĠAlmost":11740,"Ġstrangers":11741,"ĠIsabel":11742,"ĠAround":11743,"Ġmarble":11744,"Ġgrandpa":11745,"Ġexposed":11746,"Ġpains":11747,"Ġdeadly":11748,"Ġedition":11749,"Ġtomatoes":11750,"Ġsummon":11751,"Ġprotests":11752,"ĠSwiss":11753,"Ġdreamed":11754,"Ġmistakes":11755,"ĠWestenra":11756,"Ġtrusted":11757,"Ġappearances":11758,"ĠCentre":11759,"Ġvolcan":11760,"Ġcollected":11761,"Ġannouncement":11762,"Ġearliest":11763,"Ġoxide":11764,"ĠMurray":11765,"Ġsemi":11766,"ĠBridget":11767,"Ġrefrigerator":11768,"Ġplunged":11769,"Ġnappie":11770,"ĠLorenzo":11771,"46":11772,"aire":11773,"based":11774,"hr":11775,"uz":11776,"Ġmock":11777,"Ġdum":11778,"Ġfres":11779,"Ġfears":11780,"ede":11781,"Ġec":11782,"ĠScience":11783,"Ġrect":11784,"ĠWANT":11785,"ĠWOMAN":11786,"uro":11787,"ĠNak":11788,"ĠLinda":11789,"ĠJill":11790,"ĠRat":11791,"arten":11792,"ATH":11793,"Ġtricks":11794,"ĠKap":11795,"Ġafterward":11796,"ĠVienna":11797,"Ġdischar":11798,"Ġremote":11799,"ĠAsher":11800,"Ġaccent":11801,"Ġreflected":11802,"Ġspeakers":11803,"Ġdaisy":11804,"Ġroller":11805,"Ġapproval":11806,"ĠCalm":11807,"ITY":11808,"Ġsubjects":11809,"holding":11810,"Ġspelling":11811,"Ġurged":11812,"ĠCatal":11813,"Ġexerc":11814,"Ġterrified":11815,"Ġelectricity":11816,"Ġgoddamn":11817,"Ġpupil":11818,"Ġdelayed":11819,"Ġrenamed":11820,"Ġaccomplished":11821,"____":11822,"Ġchallenge":11823,"breathes":11824,"referent":11825,"ĠCurtis":11826,"Ġyoghurt":11827,"ĠBarcelona":11828,"Dear":11829,"Ed":11830,"bled":11831,"mir":11832,"Ġtones":11833,"oust":11834,"Ġbows":11835,"Ġcm":11836,"Ġdub":11837,"Ġfict":11838,"Ġfrench":11839,"Ġfiction":11840,"Ġtoler":11841,"Ġgaze":11842,"ĠTELL":11843,"usive":11844,"aco":11845,"ĠCAR":11846,"ĠOpp":11847,"Ġsoccer":11848,"Ġfrust":11849,"ĠRory":11850,"ĠRail":11851,"ĠEmer":11852,"ĠEconom":11853,"Ġlookin":11854,"akh":11855,"employ":11856,"ideo":11857,"Ġquot":11858,"ucks":11859,"ĠVar":11860,"Ġapparent":11861,"Ġleap":11862,"airy":11863,"ultane":11864,"ĠBruno":11865,"Ġdram":11866,"ĠBecket":11867,"Ġattorney":11868,"Ġelsewhere":11869,"Ġspecially":11870,"ottie":11871,"ĠJohnathan":11872,"ĠDean":11873,"Ġmessenger":11874,"Ġmedium":11875,"Ġsunny":11876,"Ġ1953":11877,"Ġcorrupt":11878,"Ġ1934":11879,"Ġ1938":11880,"Ġsupporting":11881,"Ġsharks":11882,"ĠCheers":11883,"Ġavo":11884,"flower":11885,"Ġoccasions":11886,"ĠOthers":11887,"Ġbombs":11888,"Ġapplication":11889,"Ġplanted":11890,"ĠApple":11891,"ĠJews":11892,"Ġpumpkin":11893,"ĠFrosty":11894,"UCKLES":11895,"Ġcasual":11896,"Ġexperiences":11897,"Ġconsequence":11898,"intendent":11899,"Ġswiftly":11900,"Ġjewels":11901,"Ġestimated":11902,"Ġexceedingly":11903,"Ġbattles":11904,"ĠFormula":11905,"ĠBACK":11906,"ĠKathryn":11907,"ĠScientists":11908,"ĠFederation":11909,"Ġinterfere":11910,"ĠMoore":11911,"55":11912,"BOB":11913,"DOU":11914,"Mus":11915,"Ph":11916,"TAIN":11917,"bies":11918,"ded":11919,"loud":11920,"mble":11921,"tch":11922,"vard":11923,"whe":11924,"wall":11925,"Ãª":11926,"inating":11927,"Ġsway":11928,"Ġmice":11929,"Ġdah":11930,"organ":11931,"hattan":11932,"Ġofthe":11933,"icit":11934,"ĠAIR":11935,"Ġeagle":11936,"ĠBid":11937,"ĠBorn":11938,"ĠCOL":11939,"roach":11940,"ĠDVD":11941,"ĠLor":11942,"ĠLiver":11943,"ĠLyn":11944,"ĠFight":11945,"ĠFull":11946,"ĠFern":11947,"ĠRO":11948,"Ġabrupt":11949,"igley":11950,"Ġtwe":11951,"Ġwhereas":11952,"ĠKnight":11953,"Ġovercome":11954,"Ġlend":11955,"rup":11956,"Ġhelmet":11957,"Ġperil":11958,"Ġelim":11959,"Ġfinishing":11960,"Ġrunway":11961,"Ġdifferences":11962,"ĠDevelop":11963,"Ġconsists":11964,"ĠJustice":11965,"ĠReal":11966,"shirt":11967,"Ġtrapped":11968,"Ġvisits":11969,"Ġinsult":11970,"Ġfuckin":11971,"ĠPerry":11972,"Ġ1937":11973,"ĠAnyone":11974,"Ġsailed":11975,"castle":11976,"ĠAlfred":11977,"Ġdigger":11978,"Ġcontrary":11979,"Ġastron":11980,"Ġwiped":11981,"Ġanalysis":11982,"Ġcomposer":11983,"Ġenthusiasm":11984,"Ġrehears":11985,"58":11986,"Br":11987,"Every":11988,"WN":11989,"ech":11990,"hoe":11991,"Ġwaking":11992,"Ġtherap":11993,"Ġbail":11994,"itled":11995,"Ġcong":11996,"Ġfog":11997,"Ġfans":11998,"Ġfert":11999,"ĠIra":12000,"orse":12001,"ims":12002,"Ġrebell":12003,"Ġraw":12004,"ĠBog":12005,"ĠBalt":12006,"ĠHitch":12007,"still":12008,"ĠNag":12009,"ĠNod":12010,"ĠNaz":12011,"anta":12012,"ppers":12013,"oodle":12014,"ĠStri":12015,"Ġpepper":12016,"Ġleaned":12017,"ĠInf":12018,"uckle":12019,"irlines":12020,"Ġbabys":12021,"Ġscoot":12022,"Ġsergeant":12023,"ĠBrand":12024,"prise":12025,"Ġacad":12026,"maid":12027,"ĠClifford":12028,"ĠGoing":12029,"ENCE":12030,"Ġshorts":12031,"ĠIndiana":12032,"ĠOrton":12033,"Ġloan":12034,"Ġsurprising":12035,"Ġfixing":12036,"ĠCoach":12037,"Ġdiscussing":12038,"Ġtricky":12039,"ĠNathan":12040,"ĠTerry":12041,"Ġscrewdriver":12042,"Ġbubble":12043,"ĠDetroit":12044,"Ã¤s":12045,"ĠEvans":12046,"ĠShane":12047,"Ġbetrayed":12048,"Quigley":12049,"Ġgratitude":12050,"Ġtackle":12051,"Ġcigarette":12052,"McNally":12053,"QuigleyMcNally":12054,"Pl":12055,"goes":12056,"je":12057,"jing":12058,"jud":12059,"zie":12060,"Ġwis":12061,"Ġbade":12062,"Ġmos":12063,"orge":12064,"Ġpets":12065,"Ġnarr":12066,"Ġthread":12067,"ooped":12068,"ĠSleep":12069,"ĠWoman":12070,"ĠCherry":12071,"Ġkit":12072,"uri":12073,"iels":12074,"celer":12075,"ĠNear":12076,"Ġjury":12077,"ĠGru":12078,"ĠFIRST":12079,"elf":12080,"ested":12081,"Ġflip":12082,"Ġcompre":12083,"Ġglimp":12084,"Ġindicated":12085,"Ġcathedral":12086,"ĠMissus":12087,"Ġ42":12088,"Ġpromoted":12089,"Ġfights":12090,"Ġinspired":12091,"ĠCray":12092,"Ġknocks":12093,"Ġ1932":12094,"IDE":12095,"Ġboarding":12096,"Ġempire":12097,"Ġgallop":12098,"Ġ1927":12099,"ĠOtherwise":12100,"ĠChicasa":12101,"ribute":12102,"Ġbothering":12103,"Ġrailroad":12104,"Ġ1870":12105,"Ġwrestling":12106,"Ġoxygen":12107,"Ġshrine":12108,"Ġfloating":12109,"Ġessay":12110,"Ġadopt":12111,"Ġcustomers":12112,"ĠLAUGH":12113,"Ġlifetime":12114,"Ġathletes":12115,"ĠBruce":12116,"Ġadministrative":12117,"Ġcautiously":12118,"ĠVenezuela":12119,"Ġimpatient":12120,"pherd":12121,"Ġglimpse":12122,"?âĢĻ":12123,"BY":12124,"EVA":12125,"chen":12126,"cular":12127,"doll":12128,"lines":12129,"sneezes":12130,"uv":12131,"Ġcher":12132,"Ġgifts":12133,"Ġlaund":12134,"Ġhan":12135,"icut":12136,"ido":12137,"idency":12138,"ĠAff":12139,"Ġweigh":12140,"oog":12141,"ĠSAY":12142,"achi":12143,"Ġrival":12144,"irm":12145,"Ġkettle":12146,"Ġgoverness":12147,"illes":12148,"ĠPR":12149,"andal":12150,"ĠGU":12151,"ĠLena":12152,"ĠFarm":12153,"ĠJere":12154,"Ġshots":12155,"Ġspons":12156,"orting":12157,"Ġneedle":12158,"Ġflights":12159,"Ġeveryday":12160,"Ġperce":12161,"Ġreserve":12162,"OUGH":12163,"iolet":12164,"Ġdaring":12165,"Ġinvasion":12166,"Ġfactors":12167,"ĠLeft":12168,"Ġproviding":12169,"headed":12170,"Ġlargely":12171,"Ġdeparture":12172,"Ġmodest":12173,"Ġprofit":12174,"Ġoperated":12175,"Ġwildly":12176,"Ġconsidering":12177,"Ġdeclare":12178,"ĠMonster":12179,"offs":12180,"Ġnegro":12181,"Ġblessing":12182,"ĠSandy":12183,"Ġsuspicious":12184,"Ġdistribution":12185,"Ġsqueezes":12186,"fortunately":12187,"Ġassociation":12188,"ĠClaus":12189,"ĠBrazilian":12190,"ĠTripp":12191,"Ġliberty":12192,"Ġgathering":12193,"Ġconcentrate":12194,"MPI":12195,"Ġpurchase":12196,"Ġpromptly":12197,"Ġgrip":12198,"Ġuniversities":12199,"Ġfarewell":12200,"Ġhedge":12201,"Ġmagnificent":12202,"42":12203,"43":12204,"July":12205,"YS":12206,"bear":12207,"count":12208,"lap":12209,"movie":12210,"nuts":12211,"papers":12212,"squ":12213,"wah":12214,"ÅĤ":12215,"rep":12216,"Ġbri":12217,"Ġbos":12218,"Ġdiet":12219,"Ġlest":12220,"Ġlos":12221,"Ġlane":12222,"ashi":12223,"Ġhip":12224,"lete":12225,"ĠTiger":12226,"usa":12227,"Ġraces":12228,"Ġstim":12229,"ĠDAR":12230,"ĠDuchess":12231,"ĠPretty":12232,"ĠGwww":12233,"ĠFA":12234,"Ġalligator":12235,"ĠReb":12236,"Ġalert":12237,"Ġsup":12238,"Ġtwinkle":12239,"ĠKaw":12240,"ĠKnow":12241,"Ġbrook":12242,"ĠAnderson":12243,"Ġgraph":12244,"Ġlean":12245,"Ġprecip":12246,"ohoh":12247,"Ġheadache":12248,"Ġdesired":12249,"Ġsurvey":12250,"Ġdifferently":12251,"Ġï¿½ï¿½":12252,"Ġmissus":12253,"ĠShr":12254,"Ġawesome":12255,"Ġcenturies":12256,"Ġyelling":12257,"Ġfrozen":12258,"Ġmedals":12259,"ĠExec":12260,"Ġlayer":12261,"ographer":12262,"ĠThanksgiving":12263,"scape":12264,"Ġcopper":12265,"black":12266,"ĠMadge":12267,"IRL":12268,"Ġsleigh":12269,"Ġtapes":12270,"ĠMontreal":12271,"imitates":12272,"Ġattracted":12273,"ĠBernard":12274,"Ġtraveling":12275,"Ġtravelling":12276,"Ã¨re":12277,"Ġbothered":12278,"Ġpreparations":12279,"Ġautomobile":12280,"ĠObject":12281,"Ġinspector":12282,"ĠSilver":12283,"ĠHolland":12284,"ĠCorporation":12285,"Ġwretched":12286,"ĠMcDonalds":12287,"Ġbewild":12288,"Ġcolleagues":12289,"Ġdisgrace":12290,"ĠWrestling":12291,"Ġassembled":12292,"Ġdolph":12293,"Ġpajamas":12294,"Home":12295,"KING":12296,"MI":12297,"cake":12298,"found":12299,"gor":12300,"mel":12301,"rons":12302,"shi":12303,"yon":12304,"zard":12305,"Ġwives":12306,"Ġcel":12307,"Ġcudd":12308,"Ġmask":12309,"Ġmrs":12310,"anese":12311,"Ġpand":12312,"arched":12313,"etter":12314,"ĠTower":12315,"ĠAin":12316,"ĠAge":12317,"ĠSak":12318,"ĠMah":12319,"Ġreception":12320,"ĠWat":12321,"ĠWol":12322,"ĠHand":12323,"ĠPress":12324,"ĠNep":12325,"Ġsoot":12326,"umi":12327,"resents":12328,"Ġvoted":12329,"Ġque":12330,"assy":12331,"Ġhandies":12332,"Ġdescended":12333,"Ġreluct":12334,"Ġheartily":12335,"show":12336,"iversary":12337,"ĠLeo":12338,"Ġbarrel":12339,"Ġfastened":12340,"Ġnorthwestern":12341,"Ġ1936":12342,"Ġcontrovers":12343,"Ġdestiny":12344,"Ġoperate":12345,"Ġorganizations":12346,"Ġdeeper":12347,"Ġpuzzles":12348,"Ġstrengthen":12349,"ĠDarling":12350,"Ġinjuries":12351,"Ġsnail":12352,"ĠTerrit":12353,"Ġlogs":12354,"Ġirrit":12355,"ĠJudge":12356,"Ġventure":12357,"Ġsympat":12358,"Ġdivorce":12359,"Ġastonished":12360,"bourne":12361,"Ġgesture":12362,"ĠHugo":12363,"ĠColumbia":12364,"Ġpermanent":12365,"ĠWindsor":12366,"GAS":12367,"gins":12368,"may":12369,"named":12370,"och":12371,"Ġau":12372,"hara":12373,"Ġcmon":12374,"Ġmakin":12375,"Ġfug":12376,"Ġlod":12377,"Ġni":12378,"ĠTs":12379,"ĠMAY":12380,"ĠCD":12381,"ĠCool":12382,"Ġcanal":12383,"ĠNisha":12384,"ĠLass":12385,"oline":12386,"quis":12387,"Ġconvey":12388,"Ġtwisted":12389,"Ġuser":12390,"oster":12391,"cale":12392,"Ġoverboard":12393,"ĠStra":12394,"ĠThird":12395,"Ġamaz":12396,"ĠWendy":12397,"Ġenfor":12398,"Ġshamp":12399,"Ġpoly":12400,"Ġsecured":12401,"Ġdisk":12402,"ANS":12403,"Ġdescend":12404,"ĠAsk":12405,"Ġballet":12406,"Ġ39":12407,"okÃ©":12408,"Ġsniff":12409,"boys":12410,"ĠClose":12411,"ĠClaud":12412,"ĠShoot":12413,"Ġsqueal":12414,"kesp":12415,"Ġ77":12416,"Ġcollar":12417,"Ġoffices":12418,"ĠTrue":12419,"ĠWarner":12420,"Ġmode":12421,"Ġabsent":12422,"Ġsalad":12423,"Ġpressing":12424,"AMY":12425,"Ġfatal":12426,"Ġlimits":12427,"Ġsouthwest":12428,"Ġdancer":12429,"Ġembr":12430,"Ġcells":12431,"ĠValentine":12432,"Ġambulance":12433,"Ġconsequences":12434,"ĠHindu":12435,"ĠEsther":12436,"Ġprosper":12437,"ĠJamie":12438,"Ġchimney":12439,"ĠEntertainment":12440,"ĠAdministration":12441,"ĠLiverpool":12442,"33":12443,"Ne":12444,"iu":12445,"iques":12446,"mies":12447,"rary":12448,"tons":12449,"yellow":12450,"Ã£":12451,"Ġmild":12452,"Ġdiver":12453,"ĠIvan":12454,"Ġtoad":12455,"Ġtoads":12456,"Ġponies":12457,"Ġly":12458,"Ġloop":12459,"Ġnerve":12460,"ĠTour":12461,"ĠAud":12462,"uttering":12463,"ĠSU":12464,"ĠSER":12465,"ĠSPE":12466,"ĠMiles":12467,"Ġreci":12468,"Ġkitt":12469,"ĠDNA":12470,"ieves":12471,"ĠGR":12472,"ĠGa":12473,"ĠLeb":12474,"oples":12475,"ĠRest":12476,"ĠRoc":12477,"ĠEwww":12478,"Ġcomic":12479,"Ġvib":12480,"ĠKarl":12481,"Ġargue":12482,"Ġamid":12483,"acht":12484,"Ġsitcom":12485,"Ġdescent":12486,"ĠGriff":12487,"Ġtrigger":12488,"ĠRev":12489,"Ġyelled":12490,"ĠPrice":12491,"Ġdefined":12492,"ĠManhattan":12493,"Ġclassic":12494,"Ġtested":12495,"Ġcrackers":12496,"Ġdenied":12497,"Ġdetermin":12498,"ĠTurkey":12499,"Ġthreatening":12500,"ĠMorgan":12501,"writing":12502,"ĠStephan":12503,"Ġqualified":12504,"Ġfrequent":12505,"ĠBeautiful":12506,"Ġethnic":12507,"Ġemotions":12508,"Ġarchitect":12509,"Ġensure":12510,"Ġacquaintance":12511,"Ġbreeze":12512,"ĠConnecticut":12513,"Ġinsects":12514,"ĠMacedon":12515,"houses":12516,"Ġapproximately":12517,"56":12518,"NING":12519,"Or":12520,"Say":12521,"Tony":12522,"iary":12523,"lic":12524,"mal":12525,"oft":12526,"Ġtut":12527,"Ġfury":12528,"Ġfisher":12529,"Ġtob":12530,"Ġtore":12531,"Ġgross":12532,"Ġlorry":12533,"ĠTE":12534,"ĠTar":12535,"ĠTun":12536,"uscript":12537,"ĠWals":12538,"ĠWitch":12539,"ĠHap":12540,"chin":12541,"rophy":12542,"ĠDOWN":12543,"ĠNur":12544,"ĠLoc":12545,"ĠRing":12546,"istling":12547,"aston":12548,"Ġprosec":12549,"Ġtrump":12550,"Ġagents":12551,"Ġclapping":12552,"ĠVaug":12553,"Ġchill":12554,"Ġcontaining":12555,"Ġslim":12556,"ignment":12557,"Ġfounder":12558,"unde":12559,"ounge":12560,"Ġbreach":12561,"Ġthanked":12562,"Ġaccord":12563,"Ġrestr":12564,"Ġhighway":12565,"Ġconsumption":12566,"Ġskipper":12567,"Ġassass":12568,"Ġlandl":12569,"Ġ83":12570,"Ġformal":12571,"ĠExpl":12572,"ĠGuys":12573,"ĠGuinea":12574,"Ġparlor":12575,"Ġraft":12576,"Ġcampus":12577,"ĠPolit":12578,"ĠCommand":12579,"Ġbutterflies":12580,"Ġvalues":12581,"Ġclubs":12582,"yawns":12583,"Ġnegoti":12584,"Ġprayers":12585,"Ġcultural":12586,"ĠBoard":12587,"Ġarrangement":12588,"Ġtimid":12589,"Ġtoothp":12590,"ĠSOMETHING":12591,"ĠGrammy":12592,"Ġstrategic":12593,"Ġlaundry":12594,"49":12595,"God":12596,"IRE":12597,"La":12598,"ront":12599,"vation":12600,"vals":12601,"Ġwah":12602,"Ġmant":12603,"oration":12604,"ĠSin":12605,"ĠSister":12606,"imet":12607,"stra":12608,"ĠPed":12609,"Ġsoci":12610,"ĠGas":12611,"aints":12612,"ĠFestival":12613,"Ġneut":12614,"Ġallowing":12615,"qual":12616,"Ġgrows":12617,"Ġamazed":12618,"Ġtee":12619,"ĠSof":12620,"Ġpermit":12621,"ixon":12622,"Ġresumed":12623,"ĠĠĠĠĠĠĠĠĠ":12624,"Ġswam":12625,"ĠDead":12626,"Ġsorted":12627,"ĠMeiji":12628,"Ġreprod":12629,"Ġrepresents":12630,"Ġ76":12631,"iko":12632,"ĠHero":12633,"Ġextract":12634,"ĠExam":12635,"Ġbathtub":12636,"ĠShakesp":12637,"ĠMcK":12638,"Ġcorre":12639,"Ġharsh":12640,"ĠPolicy":12641,"Ġfortnight":12642,"oopy":12643,"Ġbowling":12644,"iscons":12645,"Ġparking":12646,"Ġlimbs":12647,"Ġvideos":12648,"Ġimagination":12649,"ĠSystem":12650,"ĠSlow":12651,"Ġcalmly":12652,"Ġnomination":12653,"Ġoxid":12654,"ĠSeabrooke":12655,"Ġsacred":12656,"Ġgorilla":12657,"Ġinspection":12658,"ĠYeon":12659,"Ġmeasures":12660,"Ġsequel":12661,"Ġswallowed":12662,"Ġcurtains":12663,"ĠCookie":12664,"Ġbacter":12665,"Ġfeathers":12666,"ĠVizier":12667,"Ġdefinition":12668,"Ġcinema":12669,"Ġfictional":12670,"31":12671,"Am":12672,"cill":12673,"faced":12674,"person":12675,"tries":12676,"would":12677,"wind":12678,"zi":12679,"Ġ|":12680,"oug":12681,"erving":12682,"isure":12683,"Ġcrest":12684,"ĠIDS":12685,"ller":12686,"orig":12687,"Ġgreed":12688,"Ġgazing":12689,"Ġlump":12690,"Ġnaval":12691,"Ġhire":12692,"Ġhint":12693,"ĠArd":12694,"imer":12695,"irie":12696,"Ġsector":12697,"ĠDAN":12698,"ooked":12699,"ĠFBI":12700,"ĠJura":12701,"ĠRim":12702,"rik":12703,"Ġvest":12704,"Ġaggress":12705,"ĠKha":12706,"Ġclue":12707,"Ġbrass":12708,"Ġblown":12709,"ĠThousand":12710,"avia":12711,"cied":12712,"Ġcompens":12713,"Ġcompelled":12714,"Ġresigned":12715,"Ġcheering":12716,"Ġreadily":12717,"Ġreduction":12718,"INGING":12719,"Ġtribut":12720,"ĠIndepend":12721,"Ġconsisted":12722,"ĠClay":12723,"Ġfireplace":12724,"Ġsuburb":12725,"ajo":12726,"Ġconfront":12727,"Ġformat":12728,"ĠLeices":12729,"Ġpenet":12730,"ĠProm":12731,"Ġforgiven":12732,"Ġreceipt":12733,"Ġ150":12734,"itcher":12735,"Ġlowered":12736,"Ġstatic":12737,"Ġstatistics":12738,"ĠRosie":12739,"Ġrecognizes":12740,"Ġcostume":12741,"ĠEmm":12742,"Ġrubbing":12743,"ĠSeriously":12744,"Ġgenu":12745,"Ġyeh":12746,"Ġsensation":12747,"Ġbouncing":12748,"Ġtrading":12749,"ĠPalace":12750,"Ġtraveled":12751,"Ġuncertain":12752,"Ġscientist":12753,"ĠMamma":12754,"ĠHawai":12755,"Ġscholars":12756,"Ġfacilities":12757,"ĠTransport":12758,"Ġdearest":12759,"Ġsacrific":12760,"Ġlemonade":12761,"hnf":12762,"Ġsurrender":12763,"ĠOregon":12764,"Alexander":12765,"okÃ©mon":12766,"Ġtobacco":12767,"isconsin":12768,"'!":12769,"020":12770,"Bomba":12771,"CL":12772,"cope":12773,"hop":12774,"mag":12775,"mare":12776,"sie":12777,"tis":12778,"Ġwires":12779,"Ġtheater":12780,"Ġbash":12781,"CHUCKLES":12782,"Ġnappy":12783,"oween":12784,"Ġbending":12785,"ĠSis":12786,"ĠSug":12787,"ĠBal":12788,"ĠWisconsin":12789,"Ġstew":12790,"ĠCre":12791,"ĠPig":12792,"ĠNutt":12793,"ĠOp":12794,"ĠOsc":12795,"ĠGus":12796,"ĠLET":12797,"ĠJessie":12798,"igo":12799,"resa":12800,"Ġwholly":12801,"Ġmanuscript":12802,"odo":12803,"âĢĿ?":12804,"Ġshaped":12805,"plom":12806,"avid":12807,"object":12808,"Ġadapt":12809,"Ġleak":12810,"Ġminus":12811,"plete":12812,"ĠBeat":12813,"Ġcolony":12814,"Ġacceler":12815,"ERING":12816,"Ġmarvel":12817,"Ġ46":12818,"Ġlively":12819,"Ġdrivers":12820,"ĠShh":12821,"ifications":12822,"Ġexpenses":12823,"etera":12824,"ĠConc":12825,"Ġemig":12826,"Ġparcel":12827,"Ġsunset":12828,"ĠEnglishman":12829,"ĠGermans":12830,"Ġzoom":12831,"Ġcorners":12832,"Ġspecim":12833,"harm":12834,"Ġmisunder":12835,"Ġfearful":12836,"ĠSmur":12837,"Ġradiation":12838,"Ġtaxi":12839,"Ġdisposed":12840,"Ġcartoon":12841,"ĠBernardo":12842,"Ġsurvived":12843,"Alpes":12844,"Ġfantasy":12845,"ĠVisit":12846,"Ġdeserted":12847,"Ġdistinctly":12848,"Ġinternal":12849,"Ġproposals":12850,"ĠSAID":12851,"ĠAFC":12852,"Ġtemporary":12853,"ĠArgentina":12854,"ĠTibbits":12855,"natured":12856,"Ġsteadily":12857,"ĠUFO":12858,"ĠWickham":12859,"ĠSupreme":12860,"Ġoctopus":12861,"ĠDevelopment":12862,"\"--":12863,"Eng":12864,"Gu":12865,"MM":12866,"burn":12867,"cu":12868,"date":12869,"hol":12870,"mind":12871,"rum":12872,"talk":12873,"whel":12874,"Ġtact":12875,"inction":12876,"Ġopt":12877,"Ġcot":12878,"Ġcul":12879,"Ġdin":12880,"Ġtoot":12881,"ester":12882,"edia":12883,"arms":12884,"omy":12885,"Ġhind":12886,"Ġhosp":12887,"icals":12888,"icial":12889,"Ġbeats":12890,"ĠAra":12891,"ĠMORE":12892,"acon":12893,"Ġdock":12894,"Ġrasc":12895,"ĠBund":12896,"iries":12897,"Ġ---------------------------------":12898,"ĠPull":12899,"ĠNik":12900,"ĠNeed":12901,"ĠJunior":12902,"Ġplug":12903,"ichi":12904,"ĠUse":12905,"Ġcoco":12906,"plo":12907,"Ġchalk":12908,"Ġpreced":12909,"Ġkinderg":12910,"Ġache":12911,"Ġbelieves":12912,"Ġphones":12913,"ĠHarrington":12914,"ĠSponge":12915,"Ġtragedy":12916,"Ġ79":12917,"iami":12918,"Ġparallel":12919,"cribed":12920,"ĠShawn":12921,"Ġarmour":12922,"Ġanniversary":12923,"Ġ1935":12924,"Ġstatements":12925,"ĠQuite":12926,"Ġblankets":12927,"Ġperforming":12928,"OPH":12929,"Ġsources":12930,"Ġwitnesses":12931,"Ġshocked":12932,"Ġparticipated":12933,"ĠCommunist":12934,"ĠCecil":12935,"Ġpronounced":12936,"ĠModern":12937,"Ġcushion":12938,"ĠVincent":12939,".!":12940,"Bob":12941,"John":12942,"Nord":12943,"Our":12944,"cal":12945,"dis":12946,"eges":12947,"fashion":12948,"hou":12949,"iency":12950,"pop":12951,"xed":12952,"Ġtatt":12953,"inja":12954,"erman":12955,"Ġfoss":12956,"orms":12957,"Ġpork":12958,"Ġles":12959,"etty":12960,"ĠTag":12961,"ĠMAKE":12962,"adays":12963,"ĠHAS":12964,"stop":12965,"stream":12966,"antry":12967,"ĠOUR":12968,"Ġfruits":12969,"andom":12970,"ĠLl":12971,"ĠLav":12972,"ĠRas":12973,"ĠRow":12974,"ĠEasy":12975,"riet":12976,"owned":12977,"Ġclo":12978,"Ġpeck":12979,"ĠWeather":12980,"Ġflushed":12981,"Ġcargo":12982,"Ġdisple":12983,"Ġsmack":12984,"cling":12985,"clown":12986,"Ġactors":12987,"Ġcompass":12988,"Ġperpet":12989,"ĠAlready":12990,"Ġdrill":12991,"ĠMarine":12992,"Ġpreserve":12993,"Ġentitled":12994,"ĠJustus":12995,"Ġfactor":12996,"ĠZe":12997,"Ġdiscont":12998,"Ġpurp":12999,"Ġsteering":13000,"Ġ95":13001,"Ġdealt":13002,"Ġinsane":13003,"Ġchecks":13004,"Ġnewspapers":13005,"Ġcamping":13006,"Ġvari":13007,"Ġrecognise":13008,"Ġdeputy":13009,"adeshi":13010,"Ġoccasional":13011,"ĠNorway":13012,"Ġviolin":13013,"Ġdeny":13014,"ugging":13015,"Ġflee":13016,"Ġcritics":13017,"ĠJoan":13018,"Ġtightly":13019,"Ġprimarily":13020,"ĠMotor":13021,"Ġpursue":13022,"Ġmagazines":13023,"shakes":13024,"ĠDesp":13025,"Ġmoist":13026,"Ġchewing":13027,"Ġdismay":13028,"ĠHotel":13029,"Ġmethods":13030,"Ġrhythm":13031,"ĠPLAY":13032,"Ġdedicated":13033,"Ġbundle":13034,"Ġbronze":13035,"Ġshampoo":13036,"ĠVaughan":13037,"Ġgenuine":13038,"76":13039,":,":13040,"Har":13041,"cj":13042,"path":13043,"run":13044,"tuce":13045,"wart":13046,"wari":13047,"Ġtension":13048,"Ġwaff":13049,"Ġwaved":13050,"Ġsighed":13051,"Ġcone":13052,"Ġdated":13053,"llous":13054,"Ġpip":13055,"Ġgent":13056,"owary":13057,"Ġhood":13058,"ĠTot":13059,"ĠTest":13060,"Ġbends":13061,"ĠMember":13062,"ĠCE":13063,"ĠCard":13064,"ĠCertainly":13065,"ĠYan":13066,"Ġnotion":13067,"rob":13068,"ĠDin":13069,"ĠDude":13070,"ĠParson":13071,"Ġjog":13072,"Ġjunk":13073,"Ġsober":13074,"Ġsoph":13075,"above":13076,"Ġoutfit":13077,"Ġspilled":13078,"Ġquote":13079,"Ġplayin":13080,"ĠStat":13081,"Ġcoin":13082,"Ġcoff":13083,"Ġcoinc":13084,"Ġunemploy":13085,"ĠVERY":13086,"necess":13087,"Ġsmugg":13088,"Ġthoughtful":13089,"Ġmini":13090,"Ġowns":13091,"ucer":13092,"them":13093,"prints":13094,"ĠAllen":13095,"Ġcharm":13096,"Ġborne":13097,"ĠSeason":13098,"Ġ63":13099,"Ġsentences":13100,"ĠProject":13101,"Ġzone":13102,"Ġwhispering":13103,"ĠSammy":13104,"Ġinvolve":13105,"Ġstreams":13106,"Ġchemistry":13107,"ĠNevertheless":13108,"ĠDeputy":13109,"Ġpaintings":13110,"ĠMountains":13111,"Ġsinking":13112,"ĠOwen":13113,"Ġghosts":13114,"Ġfancied":13115,"Ġbarking":13116,"ĠCambridge":13117,"Ġleadership":13118,"Only":13119,"ĠBusiness":13120,"Ġcategory":13121,"Ġinstitution":13122,"ĠCindy":13123,"Ġhalted":13124,"ĠNicholas":13125,"Ġignorant":13126,"Ġhorizon":13127,"Ġguarantee":13128,"Ġsodium":13129,"ĠNoddy":13130,"ACH":13131,"End":13132,"June":13133,"court":13134,"cups":13135,"iens":13136,"six":13137,"vas":13138,"wi":13139,"wich":13140,"Ġou":13141,"inet":13142,"Ġcable":13143,"Ġcoughs":13144,"Ġmob":13145,"ĠIowa":13146,"Ġgear":13147,"Ġlounge":13148,"eting":13149,"ĠTunde":13150,"ĠAmen":13151,"ĠSier":13152,"Ġwasted":13153,"Ġri":13154,"Ġnotable":13155,"ĠDoh":13156,"ĠGand":13157,"Ġupright":13158,"ĠFL":13159,"uming":13160,"abouts":13161,"ĠRet":13162,"oshi":13163,"Ġvon":13164,"Ġboing":13165,"Ġboiling":13166,"Ġexists":13167,"Ġbrains":13168,"Ġbrisk":13169,"Ġblues":13170,"udes":13171,"Ġscan":13172,"Ġcontem":13173,"ĠUnfortunately":13174,"Ġresent":13175,"Ġserves":13176,"Ġcareless":13177,"Ġreaders":13178,"Ġrealise":13179,"Ġsecondary":13180,"ORD":13181,"ĠLooking":13182,"Ġbeautifully":13183,"ĠPeace":13184,"ĠGrandfather":13185,"Ġwhispers":13186,"ĠEvelyn":13187,"guard":13188,"Ġelections":13189,"Ġneighbours":13190,"ĠMaryland":13191,"Ġhosted":13192,"Ġphotos":13193,"Ġdetermine":13194,"Ġcorrectly":13195,"believ":13196,"Ġconstitu":13197,"Ġtossed":13198,"ĠMarshall":13199,"Ġwashers":13200,"ĠOakdale":13201,"ĠGranby":13202,"Ġtoxic":13203,"Ġphilosophy":13204,"Ġrescued":13205,"Ġaccurate":13206,"ĠToby":13207,"ĠQueensland":13208,"igenous":13209,"Ġappetite":13210,"ĠMaskoki":13211,"Ġtoothpaste":13212,"ĠShakespeare":13213,"''":13214,"//":13215,"Hi":13216,"His":13217,"NY":13218,"Rem":13219,"bons":13220,"nods":13221,"pie":13222,"sis":13223,"uke":13224,"uccess":13225,"hell":13226,"inia":13227,"ouched":13228,"erm":13229,"isation":13230,"Ġmaps":13231,"Ġdash":13232,"Ġfet":13233,"Ġfitting":13234,"ingham":13235,"anes":13236,"Ġgens":13237,"Ġniece":13238,"arter":13239,"leans":13240,"ooping":13241,"ĠSet":13242,"ĠSout":13243,"ĠSalt":13244,"ĠMuch":13245,"acr":13246,"Ġreviews":13247,"ĠBunny":13248,"Ġwhirl":13249,"Ġwhoop":13250,"Ġlied":13251,"robe":13252,"ĠDyn":13253,"Ġkne":13254,"ĠFinn":13255,"Ġ120":13256,"ules":13257,"ulating":13258,"Ġseeming":13259,"elson":13260,"osure":13261,"ittin":13262,"Ġtwin":13263,"Ġmangan":13264,"Ġoverwhel":13265,"Ġquid":13266,"Ġlettuce":13267,"Ġbloom":13268,"Ġhandy":13269,"Ġhappily":13270,"obi":13271,"Ġcounts":13272,"Ġdrums":13273,"Ġattic":13274,"ĠTHEN":13275,"means":13276,"Ġrested":13277,"Ġtrips":13278,"Ġtopic":13279,"Ġskirt":13280,"ĠShinto":13281,"Ġreflection":13282,"ĠSpir":13283,"ĠQU":13284,"ĠCountry":13285,"Ġforming":13286,"Ġgrandson":13287,"Ġpenal":13288,"Ġadvis":13289,"Ġexamined":13290,"Ġzip":13291,"ĠDrake":13292,"Ġabsurd":13293,"ĠFranky":13294,"Ġstripes":13295,"Ġdepressed":13296,"ĠMonica":13297,"hoibi":13298,"Ġautonomous":13299,"Ġwelcom":13300,"Ġcracked":13301,"ĠParker":13302,"ĠSenator":13303,"Ġrequirement":13304,"Ġfloat":13305,"Ġessential":13306,"Ġrequested":13307,"Ġvoting":13308,"Ġrarely":13309,"Ġunfair":13310,"Ġswallow":13311,"hunters":13312,"Ġgalax":13313,"Ġconcerning":13314,"Ġevolution":13315,"opardy":13316,"Ġdiscipline":13317,"ĠBangladesh":13318,"Ġsuspended":13319,"ĠHitchiti":13320,"Ġamazement":13321,"Edin":13322,"Pro":13323,"QU":13324,"bidden":13325,"every":13326,"know":13327,"liness":13328,"pitched":13329,"uously":13330,"Ġtel":13331,"Ġwages":13332,"Ġcri":13333,"Ġmi":13334,"Ġonion":13335,"ĠTes":13336,"acha":13337,"ĠHumpty":13338,"ĠCow":13339,"Ġmelt":13340,"Ġanaly":13341,"ĠYug":13342,"ĠNope":13343,"ĠNeb":13344,"ĠGentle":13345,"ĠLog":13346,"ĠLock":13347,"ulgar":13348,"Ġabuse":13349,"Ġsponge":13350,"Ġvine":13351,"Ġvaud":13352,"Ġbond":13353,"hies":13354,"agne":13355,"ĠKon":13356,"Ġoverse":13357,"Ġflashing":13358,"Ġcontented":13359,"Ġslate":13360,"ĠAlong":13361,"Ġswords":13362,"baby":13363,"ĠDeep":13364,"Ġhearty":13365,"ĠForrest":13366,"ĠFlo":13367,"Ġhumble":13368,"REAT":13369,"ĠPlace":13370,"Ġtickling":13371,".'\"":13372,"Ġmercury":13373,"Ġdestro":13374,"Ġdivide":13375,"ĠAnybody":13376,"ĠDanish":13377,"Ġsuccession":13378,"load":13379,"Ġexclamation":13380,"ropri":13381,"Ġprotecting":13382,"Ġpacket":13383,"Ġdescribes":13384,"Ġwandered":13385,"Ġaccidentally":13386,"Ġcompliment":13387,"Ġcollecting":13388,"Ġearthqu":13389,"ĠFreddy":13390,"Ġetern":13391,"Ġintroduction":13392,"ĠCosworth":13393,"Ġmiracle":13394,"ĠRyder":13395,"Ġexecution":13396,"Ġexecuted":13397,"Ġfocused":13398,"Ġpreparation":13399,"ĠMiller":13400,"ĠForeign":13401,"ĠGilroy":13402,"hibition":13403,"Ġcoughing":13404,"ĠApal":13405,"zerb":13406,"ĠEspecially":13407,"Ġenthusi":13408,"Ġforbidden":13409,"Ġaeropl":13410,"HEI":13411,"ĠOtto":13412,"ĠEVERY":13413,"Ġsheriff":13414,"Ġkindergarten":13415,"Ġpurposes":13416,"Edinburgh":13417,"Ġaeroplane":13418,"):":13419,"Cha":13420,"JECT":13421,"March":13422,"PA":13423,"Sc":13424,"Sea":13425,"SPE":13426,"Would":13427,"ele":13428,"gic":13429,"him":13430,"kov":13431,"rous":13432,"rors":13433,"such":13434,"spe":13435,"uis":13436,"Ġbom":13437,"Ġborough":13438,"Ġcunning":13439,"Ġfest":13440,"Ġfist":13441,"Ġlent":13442,"asper":13443,"usions":13444,"ĠSOPH":13445,"Ġretain":13446,"Ġric":13447,"ĠBR":13448,"ĠBent":13449,"ĠBath":13450,"ĠHAM":13451,"ĠCÃ©":13452,"ĠCole":13453,"term":13454,"ĠDart":13455,"ĠPage":13456,"ĠPony":13457,"ĠFR":13458,"ĠJuan":13459,"ĠEnt":13460,"essa":13461,"Ġspank":13462,"Ġboast":13463,"Ġmanif":13464,"agi":13465,"Ġoverhead":13466,"onde":13467,"Ġencounter":13468,"angles":13469,"Ġunnecess":13470,"Ġcrush":13471,"Ġslope":13472,"ĠAlber":13473,"Ġaccus":13474,"mph":13475,"ĠArn":13476,"-------":13477,"Ġretrie":13478,"ĠJustin":13479,"ONG":13480,"Ġinval":13481,"Ġinterior":13482,"ĠZek":13483,"Ġ65":13484,"Ġ82":13485,"Ġmagician":13486,"Ġpromises":13487,"Ġladybird":13488,"Ġmessed":13489,"ĠAbd":13490,"Ġopponent":13491,"Ġ170":13492,"ĠPlan":13493,"ĠPlus":13494,"Ġexamines":13495,"Ġequation":13496,"uctions":13497,"Ġlifting":13498,"aretto":13499,"Ġhunter":13500,"ĠNorman":13501,"Ġbehavi":13502,"ĠMoreover":13503,"ĠMelbourne":13504,"Ġacquainted":13505,"Ġcommented":13506,"Ġinvestigate":13507,"Ġreminds":13508,"Ġachieved":13509,"ographical":13510,"ĠOlivia":13511,"ĠBrothers":13512,"---------------------------------------":13513,"Ġbeasts":13514,"Ġcitizen":13515,"ĠUkrainian":13516,"Ġsquirrels":13517,"Ġdialects":13518,"Ġpersuaded":13519,"Ġuneasy":13520,"ĠConfederate":13521,"ĠLiberal":13522,"ĠFollowing":13523,"ĠYEAH":13524,"ĠSports":13525,"Ġregistered":13526,"ĠEthel":13527,"Ġejaculated":13528,"ĠStephanie":13529,"Ġ------------------------------------------------------------------------":13530,"fashioned":13531,"Aub":13532,"Boy":13533,"MS":13534,"XX":13535,"basket":13536,"pat":13537,"pass":13538,"Ġwishing":13539,"Ġshat":13540,"Ġoak":13541,"Ġoptions":13542,"Ġbowed":13543,"itus":13544,"Ġcore":13545,"Ġcongrat":13546,"Ġmache":13547,"Ġfame":13548,"Ġfret":13549,"anim":13550,"annet":13551,"esy":13552,"edale":13553,"Ġguh":13554,"Ġng":13555,"Ġhither":13556,"Ġhoof":13557,"ĠTreat":13558,"ĠSign":13559,"ĠMiami":13560,"ĠBEL":13561,"lymouth":13562,"state":13563,"Ġmead":13564,"ĠDill":13565,"ĠPel":13566,"ĠPlymouth":13567,"Ġjaguar":13568,"gered":13569,"ista":13570,"Ġspared":13571,"rav":13572,"raham":13573,"icken":13574,"Ġboil":13575,"odore":13576,"Ġclasped":13577,"Ġenable":13578,"Ġcoke":13579,"Ġpram":13580,"Ġparted":13581,"Ġchug":13582,"ĠChow":13583,"onson":13584,"Ġplebe":13585,"Ġwont":13586,"Ġfarming":13587,"Ġregularly":13588,"Ġrounds":13589,"Ġrelatively":13590,"Ġsleeps":13591,"Ġcaps":13592,"Ġsnowing":13593,"Ġconsent":13594,"Ġskip":13595,"Ġfireman":13596,"Ġassumed":13597,"Ġasshole":13598,"Ġsweeping":13599,"Ġ86":13600,"Ã¡t":13601,"Ġengagement":13602,"Ġparade":13603,"Ġfiled":13604,"Ġdestination":13605,"Ġsuggests":13606,"ICT":13607,"Ġbullshit":13608,"Ġeducational":13609,"Ġconcerns":13610,"Ġspelled":13611,"Ġenvy":13612,"Ġrobbed":13613,"Ġchapel":13614,"Ġpursued":13615,"ĠRyedale":13616,"Ġheathen":13617,"ĠBatman":13618,"omeday":13619,"Ġrepeatedly":13620,"ĠJudy":13621,"ĠJefferson":13622,"putting":13623,"Ġrecomme":13624,"Ġpurchased":13625,"Ġemotional":13626,"GRUN":13627,"Ġwriters":13628,"Indeed":13629,"ĠBaxter":13630,"ĠHautes":13631,"ĠPremier":13632,"ĠArmstrong":13633,"Ġdignity":13634,"Ġsubstantial":13635,"ĠBavaria":13636,"January":13637,"Ġtreasures":13638,"zerbai":13639,"ĠZekle":13640,"HV":13641,"MAR":13642,"Sam":13643,"Tis":13644,"even":13645,"miss":13646,"mamma":13647,"sen":13648,"vous":13649,"Ġ`":13650,"Ġaired":13651,"Ġauth":13652,"inations":13653,"Ġyyy":13654,"Ġpaws":13655,"Ġpige":13656,"aroni":13657,"asher":13658,"usk":13659,"Ġ[!":13660,"Ġropes":13661,"irs":13662,"ĠWayne":13663,"entially":13664,"Ġstamps":13665,"ĠHop":13666,"ĠCaretto":13667,"Ġkin":13668,"Ġsearched":13669,"urst":13670,"ĠDark":13671,"ĠDennis":13672,"ĠNort":13673,"Ġjer":13674,"Ġjerk":13675,"unty":13676,"Ġshone":13677,"ĠRound":13678,"ĠEva":13679,"ĠEston":13680,"cked":13681,"aku":13682,"Ġvary":13683,"Ġwhereupon":13684,"Ġintim":13685,"Ġclan":13686,"ĠAndr":13687,"ĠThor":13688,"ciation":13689,"ĠVIII":13690,"closed":13691,"Ġscal":13692,"Ġscold":13693,"Ġmining":13694,"Ġcommenced":13695,"Ġmonitor":13696,"Ġfinest":13697,"ĠAns":13698,"Ġstandards":13699,"iba":13700,"oka":13701,"Ġmetres":13702,"appropri":13703,"Ġinterference":13704,"ĠZen":13705,"ĠSpike":13706,"Ġ72":13707,"ĠPrim":13708,"Ġoccurs":13709,"mingham":13710,"ĠPlat":13711,"Ġconcrete":13712,"Ġmodels":13713,"Ġsnowman":13714,"Ġresulted":13715,"Ġsecretly":13716,"Ġrubbed":13717,"Ġsails":13718,"Ġlocks":13719,"Ġcaptives":13720,"ĠGlen":13721,"Ġmemor":13722,"Ġbriefcase":13723,"Ġprocession":13724,"Ġresear":13725,"Ġheroes":13726,"undercurrent":13727,"Ġpeaceful":13728,"Ġpetition":13729,"ĠBertie":13730,"Ġdigital":13731,"Ġliterary":13732,"Ġstockings":13733,"Ã¨res":13734,"ĠImper":13735,"Ġgraduating":13736,"Ġhorns":13737,"Ġmeasured":13738,"ĠDavey":13739,"ĠSheriff":13740,"Ġpersuade":13741,"ĠUsually":13742,"Ġconsciousness":13743,"humming":13744,"ĠBirmingham":13745,"ĠPublic":13746,"ĠBrooklyn":13747,"ĠFoundation":13748,"Ġdismissed":13749,"Ġagricultural":13750,"ĠColombia":13751,"mptoms":13752,"ĠDespite":13753,"Ġvaudois":13754,";âĢĿ":13755,"Ben":13756,"CON":13757,"DP":13758,"Was":13759,"bot":13760,"cakes":13761,"hist":13762,"si":13763,"Å¡":13764,"Ġtasks":13765,"Ġae":13766,"includ":13767,"Ġoink":13768,"Ġbury":13769,"Ġming":13770,"Ġdent":13771,"Ġdorm":13772,"Ġdamp":13773,"Ġfoes":13774,"edience":13775,"Ġpia":13776,"Ġpunk":13777,"Ġgag":13778,"asia":13779,"Ġhabits":13780,"idre":13781,"ĠSab":13782,"ĠSaw":13783,"ĠMight":13784,"acre":13785,"Ġram":13786,"Ġrats":13787,"Ġrides":13788,"Ġripped":13789,"Ġrandom":13790,"ĠHat":13791,"ĠHook":13792,"ĠCf":13793,"eae":13794,"Ġliar":13795,"ĠDoto":13796,"Ġcans":13797,"ĠNong":13798,"Ġjaw":13799,"Ġfranch":13800,"ĠGene":13801,"ĠGarden":13802,"ĠGaston":13803,"ĠLot":13804,"ĠLiving":13805,"ĠJu":13806,"umer":13807,"Ġalloc":13808,"Ġshirts":13809,"ĠRic":13810,"ĠElf":13811,"ĠEvan":13812,"ulpt":13813,"Ġplacing":13814,"ĠKaz":13815,"Ġbrute":13816,"Ġgracious":13817,"ovak":13818,"avan":13819,"Ġpartial":13820,"bean":13821,"Ġchicks":13822,"Ġcompare":13823,"Ġminers":13824,"Ġunto":13825,"ĠAllyn":13826,"Ġobsc":13827,"Ġsurve":13828,"Ġeleg":13829,"Ġcaution":13830,"Ġ43":13831,"ioca":13832,"Ġsubsequ":13833,"Ġawoke":13834,"Ġreform":13835,"Ġ66":13836,"Ġ73":13837,"ĠPhoen":13838,"Ġprominent":13839,"ĠElect":13840,"Ġeval":13841,"Ġ178":13842,"Ġsends":13843,"Ġcondem":13844,"Ġpretended":13845,"Ġdivine":13846,"Ġescort":13847,"def":13848,"Ġnecessity":13849,"Ġmaam":13850,"alais":13851,"Ġviolently":13852,"speaking":13853,"ĠAlfie":13854,"Ġcellar":13855,"ĠMedical":13856,"ĠBernice":13857,"ĠCassowary":13858,"Ġreminded":13859,"Ġromance":13860,"ĠDaisy":13861,"Ġfacility":13862,"ocrats":13863,"ĠPenelly":13864,"Ġannoying":13865,"ĠLOVE":13866,"ĠJoshua":13867,"Ġpremium":13868,"Ġphotographs":13869,"Ġankle":13870,"Ġconspiracy":13871,"ĠMichelle":13872,"Ġtweet":13873,"ĠSierra":13874,"Ġmachete":13875,"44":13876,"AVE":13877,"IO":13878,"LR":13879,"WAY":13880,"bb":13881,"eor":13882,"got":13883,"piece":13884,"raska":13885,"wl":13886,"Ġawe":13887,"rec":13888,"Ġoath":13889,"Ġmasters":13890,"Ġdict":13891,"Ġpul":13892,"Ġling":13893,"aration":13894,"Ġhob":13895,"Ġholl":13896,"lee":13897,"icia":13898,"ĠTAL":13899,"uter":13900,"ĠSang":13901,"ĠMack":13902,"Ġrows":13903,"ĠBorough":13904,"Ġwithdraw":13905,"iege":13906,"ĠNelson":13907,"ĠLen":13908,"ĠExt":13909,"apse":13910,"Ġboards":13911,"ĠKatherine":13912,"Ġbloke":13913,"uddy":13914,"iva":13915,"Ġcoax":13916,"Ġhandful":13917,"ĠVik":13918,"Ġcarries":13919,"Ġpremie":13920,"Ġchoir":13921,"ogo":13922,"rug":13923,"Ġcheers":13924,"Ġmotherf":13925,"Ġrecovery":13926,"Ġglances":13927,"Ġsupporters":13928,"Ġfarms":13929,"venth":13930,"ĠGodd":13931,"Ġadds":13932,"Ġsweets":13933,"Ã©r":13934,"Ġ88":13935,"Ġsyn":13936,"192":13937,"Ġgranddad":13938,"Ġexplo":13939,"Ġadvised":13940,"Ġconstruct":13941,"ographic":13942,"ĠAmaz":13943,"ĠDadaw":13944,"Ġsickness":13945,"Ġprogramming":13946,"ĠEmmy":13947,"Ġpacking":13948,"Ġelectron":13949,"ĠCentury":13950,"Ġgallant":13951,"Ġrespected":13952,"Ġrepresenting":13953,"Ġpalm":13954,"Ġhostile":13955,"ĠAngela":13956,"Ġresemb":13957,"Ġsenses":13958,"cules":13959,"IFE":13960,"Ġdepending":13961,"ĠNavajo":13962,"Ġconviction":13963,"ĠApparently":13964,"ONEY":13965,"Ġencourage":13966,"Ġencouraged":13967,"ĠLeslie":13968,"ĠKirk":13969,"ĠJosÃ©":13970,"Ġdistinguished":13971,"ĠCheroki":13972,"Ġechoed":13973,"Ġwiggle":13974,"Ġdisgusting":13975,"ĠPEOPLE":13976,"Ġdiagnosed":13977,"Ġmaximum":13978,"ĠCameron":13979,"Ġabruptly":13980,"Ġwelcomed":13981,"Cr":13982,"Give":13983,"Mrs":13984,"Pe":13985,"Roan":13986,"could":13987,"course":13988,"lad":13989,"yan":13990,"Ġwi":13991,"Ġsor":13992,"haus":13993,"Ġpub":13994,"Ġpitcher":13995,"Ġnay":13996,"asping":13997,"Ġhem":13998,"oty":13999,"usalem":14000,"Ġwears":14001,"ĠSound":14002,"ĠMaddie":14003,"verty":14004,"rogen":14005,"ĠNon":14006,"ĠNiger":14007,"ĠGy":14008,"abby":14009,"ouring":14010,"oodles":14011,"inkling":14012,"ATTER":14013,"apo":14014,"Ġspaces":14015,"Ġspotted":14016,"Ġvir":14017,"ĠUru":14018,"Ġpeac":14019,"Ġgrasped":14020,"Ġpoverty":14021,"Ġlonging":14022,"Ġimple":14023,"Ġimages":14024,"Ġthoughtfully":14025,"ĠFront":14026,"Ġnewly":14027,"Ġslap":14028,"people":14029,"Ġminimum":14030,"otto":14031,"Ġhmm":14032,"ĠArmen":14033,"fectures":14034,"Ġtrib":14035,"Ġpopped":14036,"Ġinstall":14037,"untary":14038,"Ġ68":14039,"ENS":14040,"ĠGuess":14041,"2020":14042,"ASS":14043,"Ġadvise":14044,"Ġrais":14045,"ĠParish":14046,"Ġveter":14047,"Ġdreaming":14048,"Ġdeveloping":14049,"Ġposted":14050,"Ġestimate":14051,"audible":14052,"Ġdiplom":14053,"Ġradi":14054,"Ġbasement":14055,"Ġstrangely":14056,"ĠRussians":14057,"Ġportray":14058,"ĠRobinson":14059,"ĠWouldn":14060,"ĠNora":14061,"Ġrisen":14062,"ĠDemocrat":14063,"yrics":14064,"ĠPrix":14065,"Ġhunted":14066,"ĠHorse":14067,"Ġranked":14068,"ĠCommunity":14069,"Ġpaddling":14070,"Ġseverely":14071,"Ġsupplied":14072,"ĠRichmond":14073,"ĠACC":14074,"ĠChatah":14075,"Ġstrictly":14076,"Ġfrankly":14077,"ĠBoris":14078,"Ġsituations":14079,"directed":14080,"ranean":14081,"Ġmarvellous":14082,"ĠAffairs":14083,"Ã£o":14084,"Roanoke":14085,";.":14086,"CC":14087,"David":14088,"Poor":14089,"Somet":14090,"eem":14091,"fam":14092,"mers":14093,"pit":14094,"sounds":14095,"tree":14096,"uated":14097,"Ġwider":14098,"Ġsnee":14099,"rell":14100,"Ġbapt":14101,"inge":14102,"Ġpots":14103,"Ġlur":14104,"Ġlame":14105,"Ġnerves":14106,"ĠAah":14107,"ĠAzerbai":14108,"ĠSaf":14109,"Ġreun":14110,"ĠWright":14111,"ĠHomer":14112,"Ġwhipped":14113,"Ġselection":14114,"ĠNing":14115,"ĠGIRL":14116,"ĠLis":14117,"ĠLuck":14118,"Ġneen":14119,"ĠJared":14120,"thy":14121,"ardi":14122,"Ġvault":14123,"Ġtraces":14124,"ĠKiss":14125,"ĠKids":14126,"ĠStirling":14127,"Ġpeel":14128,"Ġleisure":14129,"ĠThought":14130,"assium":14131,"resses":14132,"weight":14133,"Ġchur":14134,"orship":14135,"Ġslop":14136,"Ġleagues":14137,"Ġcheating":14138,"Ġnightmare":14139,"atern":14140,"Ġdeserved":14141,"erella":14142,"ĠBelden":14143,"Ġpreserved":14144,"owski":14145,"tershire":14146,"LLD":14147,"ĠDeidre":14148,"Ġfootsteps":14149,"Ġdecre":14150,"Ġskating":14151,"Ġhates":14152,"Ġunderstands":14153,"Ġ87":14154,"ĠTeacher":14155,"Ġ98":14156,"Ġprovides":14157,"Ġextinct":14158,"ĠTOO":14159,"Ġpathetic":14160,"unker":14161,"Ġmoder":14162,"Ġcircuit":14163,"harf":14164,"Ġsuccessfully":14165,"chester":14166,"Ġsuggesting":14167,"ĠChester":14168,"ischer":14169,"Ġadmire":14170,"Ġtaller":14171,"ĠREALLY":14172,"Ġseventh":14173,"Ġphysician":14174,"Ġstruggled":14175,"Ġnurses":14176,"Ġproduces":14177,"Ġtuna":14178,"ĠRelax":14179,"ĠFucking":14180,"ĠÃī":14181,"Ġstirred":14182,"Ġautomatic":14183,"ĠZealanders":14184,"Ġdumped":14185,"Ġtranslated":14186,"ĠIranian":14187,"ĠDiandra":14188,"Ġcomparatively":14189,"Ġwealthy":14190,"OUND":14191,"omiya":14192,"ĠDodds":14193,"Ġï¿½ï¿½ï¿½ï¿½":14194,"ĠKashm":14195,"ĠSemin":14196,"Ġestablishment":14197,"Ġimprison":14198,"Ġphase":14199,"Ġnomine":14200,"Ġacademic":14201,"Ġdetermination":14202,",,":14203,"51":14204,"Certainly":14205,"JN":14206,"OCK":14207,"eight":14208,"equ":14209,"ih":14210,"lon":14211,"last":14212,"lasses":14213,"mail":14214,"moving":14215,"tw":14216,"word":14217,"yells":14218,"Ġâ":14219,"Ġbait":14220,"Ġcod":14221,"Ġdwar":14222,"Ġpaw":14223,"enburg":14224,"Ġlace":14225,"aters":14226,"omon":14227,"Ġhae":14228,"Ġbegging":14229,"ĠAms":14230,"uther":14231,"Ġreb":14232,"Ġrans":14233,"ĠWoo":14234,"amu":14235,"ĠDana":14236,"ĠOB":14237,"Ġjazz":14238,"ĠFO":14239,"ĠJar":14240,"Ġshiny":14241,"Ġshorter":14242,"ĠEvent":14243,"quer":14244,"Ġsund":14245,"Ġsuits":14246,"osity":14247,"Ġspan":14248,"Ġspear":14249,"Ġmans":14250,"agles":14251,"ĠStew":14252,"Ġblink":14253,"mented":14254,"plays":14255,"Ġflock":14256,"Ġflats":14257,"Ġunlock":14258,"ordin":14259,"achment":14260,"before":14261,"Ġhappier":14262,"oga":14263,"ISE":14264,"ROW":14265,"Ġbiting":14266,"ahl":14267,"Ġcomma":14268,"Ġfunctions":14269,"ĠAllied":14270,"ĠAllah":14271,"Ġsilently":14272,"Ġ51":14273,"Ġmuscle":14274,"usson":14275,"Ġdrawers":14276,"Ġinterven":14277,"ĠSeo":14278,"Ġeffectively":14279,"ĠFrankie":14280,"Ġmisery":14281,"achelor":14282,"Ġtasted":14283,"related":14284,"Ġsexy":14285,"Ġtorch":14286,"ĠBrock":14287,"Ġversions":14288,"ĠSTORY":14289,"ĠUSA":14290,"ĠNorwe":14291,"aspberries":14292,"Ġtapioca":14293,"Ġemployee":14294,"Ġ1861":14295,"ĠMorris":14296,"ictionary":14297,"Ġsurviv":14298,"ĠLabor":14299,"ĠDelhi":14300,"ĠWelsh":14301,"ĠDoug":14302,"CAUSE":14303,"Ġsequence":14304,"Ġpriority":14305,"Ġconducted":14306,"Ġarchitecture":14307,"hangba":14308,"Ġluxury":14309,"âĢķâĢķ":14310,"ĠKentucky":14311,"uerto":14312,"Ġdynasty":14313,"ĠTonight":14314,"Ġstubborn":14315,"ĠCortana":14316,"HSLLD":14317,"ĠExecutive":14318,"ĠTerritory":14319,"ĠCÃ©sar":14320,"August":14321,"February":14322,"GB":14323,"KS":14324,"Ke":14325,"Pr":14326,"Wait":14327,"cs":14328,"kh":14329,"rome":14330,"uate":14331,"hai":14332,"Ġbask":14333,"itia":14334,"Ġmourn":14335,"Ġdots":14336,"orf":14337,"Ġgig":14338,"enzie":14339,"etto":14340,"ĠTat":14341,"ĠABC":14342,"Ġweighed":14343,"ĠSaid":14344,"ĠMang":14345,"ĠMaud":14346,"imore":14347,"ĠWON":14348,"ĠHOME":14349,"ĠCoosa":14350,"ĠPap":14351,"ĠPhy":14352,"ĠPuerto":14353,"ĠNah":14354,"ĠNuclear":14355,"ĠOri":14356,"ĠJun":14357,"geance":14358,"ĠEmb":14359,"ĠEagle":14360,"Ġalumin":14361,"Ġsayin":14362,"Ġtract":14363,"ĠKum":14364,"Ġbrushed":14365,"ĠStarr":14366,"arel":14367,"udder":14368,"ĠSheila":14369,"Ġcoaches":14370,"ruit":14371,"Ġsculpt":14372,"Ġnevertheless":14373,"Ġslice":14374,"Ġsliding":14375,"Ġstrings":14376,"group":14377,"Ġsurgeon":14378,"ushima":14379,"Ġlists":14380,"Ġkills":14381,"Ġrestored":14382,"Ġ57":14383,"Ġsubmission":14384,"Ġreformed":14385,"Ġintercept":14386,"ĠAdmir":14387,"Ġ64":14388,"ĠSpace":14389,"Ġ89":14390,"Ġ74":14391,"Ġquicker":14392,"Ġexpense":14393,"ĠPhill":14394,"Ġpromotion":14395,"Ġfrost":14396,"Ġmaintained":14397,"Ġbusinesses":14398,"Ġbargain":14399,"eyed":14400,"Ġdefensive":14401,"Ġparish":14402,"ĠJacky":14403,"force":14404,"ĠWorks":14405,"Ġforgetting":14406,"ĠPolulu":14407,"Ġrecognition":14408,"Ġdiary":14409,"Ġtreaty":14410,"ĠMartha":14411,"Ġtails":14412,"Ġruler":14413,"ĠNorfolk":14414,"Ġamounts":14415,"ĠChristianity":14416,"Ġguardian":14417,"brevi":14418,"Ġcultiv":14419,"Ġaddressing":14420,"Nothing":14421,"Ġweakness":14422,"Ġproducing":14423,"Ġtravelled":14424,"Ġscratched":14425,"voicing":14426,"Ġcycle":14427,"ĠObviously":14428,"Ġmortal":14429,
[...]
